{
  "version": "1.0",
  "truncation": null,
  "padding": null,
  "added_tokens": [
    {
      "id": 0,
      "content": "[UNK]",
      "single_word": false,
      "lstrip": false,
      "rstrip": false,
      "normalized": false,
      "special": true
    },
    {
      "id": 1,
      "content": "[PAD]",
      "single_word": false,
      "lstrip": false,
      "rstrip": false,
      "normalized": false,
      "special": true
    },
    {
      "id": 2,
      "content": "[CLS]",
      "single_word": false,
      "lstrip": false,
      "rstrip": false,
      "normalized": false,
      "special": true
    },
    {
      "id": 3,
      "content": "[SEP]",
      "single_word": false,
      "lstrip": false,
      "rstrip": false,
      "normalized": false,
      "special": true
    }
  ],
  "normalizer": null,
  "pre_tokenizer": {
    "type": "Whitespace"
  },
  "post_processor": null,
  "decoder": null,
  "model": {
    "type": "BPE",
    "dropout": null,
    "unk_token": null,
    "continuing_subword_prefix": null,
    "end_of_word_suffix": null,
    "fuse_unk": false,
    "byte_fallback": false,
    "ignore_merges": false,
    "vocab": {
      "[UNK]": 0,
      "[PAD]": 1,
      "[CLS]": 2,
      "[SEP]": 3,
      ",": 4,
      ".": 5,
      ":": 6,
      "«": 7,
      "»": 8,
      "،": 9,
      "؛": 10,
      "؟": 11,
      "ء": 12,
      "آ": 13,
      "أ": 14,
      "ؤ": 15,
      "إ": 16,
      "ئ": 17,
      "ا": 18,
      "ب": 19,
      "ة": 20,
      "ت": 21,
      "ث": 22,
      "ج": 23,
      "ح": 24,
      "خ": 25,
      "د": 26,
      "ذ": 27,
      "ر": 28,
      "ز": 29,
      "س": 30,
      "ش": 31,
      "ص": 32,
      "ض": 33,
      "ط": 34,
      "ظ": 35,
      "ع": 36,
      "غ": 37,
      "ف": 38,
      "ق": 39,
      "ك": 40,
      "ل": 41,
      "م": 42,
      "ن": 43,
      "ه": 44,
      "و": 45,
      "ى": 46,
      "ي": 47,
      "ً": 48,
      "ٌ": 49,
      "ٍ": 50,
      "َ": 51,
      "ُ": 52,
      "ِ": 53,
      "ّ": 54,
      "ْ": 55,
      "‏": 56,
      "–": 57,
      "َا": 58,
      "ال": 59,
      "َّ": 60,
      "لَ": 61,
      "أَ": 62,
      "وَ": 63,
      "ِي": 64,
      "هُ": 65,
      "الْ": 66,
      "نْ": 67,
      "عَ": 68,
      "لِ": 69,
      "مَ": 70,
      "هِ": 71,
      "يْ": 72,
      "بِ": 73,
      "فَ": 74,
      "وْ": 75,
      "تَ": 76,
      "قَ": 77,
      "رَ": 78,
      "يَ": 79,
      "مِ": 80,
      "نَ": 81,
      "بَ": 82,
      "مُ": 83,
      "مَا": 84,
      "كَ": 85,
      "لَا": 86,
      "ُو": 87,
      "نَّ": 88,
      "فِي": 89,
      "مْ": 90,
      "حَ": 91,
      "دَ": 92,
      "لْ": 93,
      "رِ": 94,
      "لُ": 95,
      "ِّ": 96,
      "بْ": 97,
      "نِ": 98,
      "عَلَ": 99,
      "هَا": 100,
      "إِ": 101,
      "ةِ": 102,
      "مِنْ": 103,
      "عْ": 104,
      "وَا": 105,
      "أَنَّ": 106,
      "ًا": 107,
      "سَ": 108,
      "ُّ": 109,
      "سْ": 110,
      "رْ": 111,
      "يُ": 112,
      "قَا": 113,
      "لَّ": 114,
      "َّا": 115,
      "أَوْ": 116,
      "قَوْ": 117,
      "ِهِ": 118,
      "هَ": 119,
      "جَ": 120,
      "رُ": 121,
      "عِ": 122,
      "كَا": 123,
      "ذَ": 124,
      "صَ": 125,
      "حْ": 126,
      "ذَا": 127,
      "تْ": 128,
      "الْمُ": 129,
      "عَلَى": 130,
      "لُهُ": 131,
      "نُ": 132,
      "قْ": 133,
      "َيْ": 134,
      "نَا": 135,
      "لَهُ": 136,
      "تِ": 137,
      "يْهِ": 138,
      "عُ": 139,
      "دِ": 140,
      "قَالَ": 141,
      "لَمْ": 142,
      "عَنْ": 143,
      "قَوْلُهُ": 144,
      "ثَ": 145,
      "أَيْ": 146,
      "أَنْ": 147,
      "دَّ": 148,
      "خَ": 149,
      "تُ": 150,
      "الْمَ": 151,
      "خْ": 152,
      "أَنَّهُ": 153,
      "رَا": 154,
      "ةَ": 155,
      "فْ": 156,
      "حِ": 157,
      "فِ": 158,
      "دُ": 159,
      "لِكَ": 160,
      "ةُ": 161,
      "كُ": 162,
      "دْ": 163,
      "عَلَيْهِ": 164,
      "إِنْ": 165,
      "بُ": 166,
      "ذَلِكَ": 167,
      "ِيَ": 168,
      "جِ": 169,
      "مَّ": 170,
      "لَوْ": 171,
      "جْ": 172,
      "كَانَ": 173,
      "الْأَ": 174,
      "كْ": 175,
      "شَ": 176,
      "تَّ": 177,
      "قُ": 178,
      "قِ": 179,
      "ثُ": 180,
      "ةٍ": 181,
      "غَيْ": 182,
      "رَّ": 183,
      "طَ": 184,
      "زَ": 185,
      "شْ": 186,
      "هُوَ": 187,
      "صْ": 188,
      "بَا": 189,
      "ضَ": 190,
      "بِي": 191,
      "بِهِ": 192,
      "حُ": 193,
      "كِ": 194,
      "إلَ": 195,
      "وَالْ": 196,
      "اللَّ": 197,
      "رِي": 198,
      "فَا": 199,
      "مَنْ": 200,
      "بَيْ": 201,
      "عَا": 202,
      "سِ": 203,
      "بَعْ": 204,
      "ةً": 205,
      "ةٌ": 206,
      "جُ": 207,
      "هْ": 208,
      "حَا": 209,
      "قِي": 210,
      "نِي": 211,
      "أُ": 212,
      "فُ": 213,
      "ئِ": 214,
      "طْ": 215,
      "لِلْ": 216,
      "وَلَا": 217,
      "يْنِ": 218,
      "وَإِنْ": 219,
      "لِهِ": 220,
      "أْ": 221,
      "لِي": 222,
      "لِأَنَّ": 223,
      "جَا": 224,
      "سْتَ": 225,
      "بْنِ": 226,
      "غَيْرِ": 227,
      "رٍ": 228,
      "صِ": 229,
      "الْعَ": 230,
      "ذْ": 231,
      "ءِ": 232,
      "ثْ": 233,
      "هَذَا": 234,
      "تِهِ": 235,
      "دٍ": 236,
      "فِيهِ": 237,
      "بْنُ": 238,
      "غَ": 239,
      "لَّا": 240,
      "مِنْهُ": 241,
      "ضِ": 242,
      "قَدْ": 243,
      "خِ": 244,
      "سُ": 245,
      "لِأَنَّهُ": 246,
      "الْإِ": 247,
      "وَأَ": 248,
      "كُو": 249,
      "التَّ": 250,
      "وَلَوْ": 251,
      "الْحَ": 252,
      "إنْ": 253,
      "صَا": 254,
      "مَّا": 255,
      "ثُمَّ": 256,
      "دَا": 257,
      "وَهُوَ": 258,
      "إذَا": 259,
      "تَا": 260,
      "وَلَ": 261,
      "مِي": 262,
      "خُ": 263,
      "دِي": 264,
      "بَعْدَ": 265,
      "جُو": 266,
      "قَبْ": 267,
      "الش": 268,
      "كَمَا": 269,
      "اللَّهُ": 270,
      "صَّ": 271,
      "إِنَّ": 272,
      "سَا": 273,
      "يِّ": 274,
      "لِّ": 275,
      "فَإِنْ": 276,
      "مَعَ": 277,
      "الس": 278,
      "وَّ": 279,
      "وَيَ": 280,
      "زِ": 281,
      "عِي": 282,
      "لٍ": 283,
      "فَلَا": 284,
      "إلَى": 285,
      "وُ": 286,
      "لَى": 287,
      "مٍ": 288,
      "الْوَ": 289,
      "ِّي": 290,
      "نْدَ": 291,
      "وَسَ": 292,
      "رُو": 293,
      "قُو": 294,
      "وَال": 295,
      "ءَ": 296,
      "يَّ": 297,
      "طِ": 298,
      "شَيْ": 299,
      "مَالِ": 300,
      "بَيْنَ": 301,
      "بِالْ": 302,
      "هُمَا": 303,
      "عِنْدَ": 304,
      "لُّ": 305,
      "رٌ": 306,
      "ضْ": 307,
      "النَّ": 308,
      "ٍّ": 309,
      "هُمْ": 310,
      "لًا": 311,
      "يْسَ": 312,
      "تِي": 313,
      "عَبْ": 314,
      "شْتَ": 315,
      "الث": 316,
      "نٍ": 317,
      "ضَا": 318,
      "صِي": 319,
      "وَإِ": 320,
      "لٌ": 321,
      "بُو": 322,
      "َّةِ": 323,
      "أَحَ": 324,
      "فَيَ": 325,
      "ضُ": 326,
      "يَا": 327,
      "تَقَ": 328,
      "الرَّ": 329,
      "لَّى": 330,
      "إلَّا": 331,
      "رَةِ": 332,
      "دِهِ": 333,
      "خَا": 334,
      "فَإِنَّ": 335,
      "رَهُ": 336,
      "صَلَّى": 337,
      "قَبْلَ": 338,
      "غْ": 339,
      "قَوْلِهِ": 340,
      "لَّمَ": 341,
      "شَا": 342,
      "الن": 343,
      "وَيُ": 344,
      "وَكَ": 345,
      "حِي": 346,
      "أَبِي": 347,
      "حَق": 348,
      "إلَخْ": 349,
      "ذِي": 350,
      "طُ": 351,
      "ثِ": 352,
      "يَتَ": 353,
      "حَدَّ": 354,
      "ٌّ": 355,
      "خِلَا": 356,
      "ظَ": 357,
      "رًا": 358,
      "نَفْ": 359,
      "بٍ": 360,
      "مُو": 361,
      "لُو": 362,
      "تُهُ": 363,
      "الصَّ": 364,
      "اللَّهِ": 365,
      "الَّ": 366,
      "طَا": 367,
      "عَنْهُ": 368,
      "مِثْ": 369,
      "اسْ": 370,
      "الشَّ": 371,
      "زُ": 372,
      "حَدَّثَ": 373,
      "زْ": 374,
      "مَعْ": 375,
      "رِّ": 376,
      "وَسَلَّمَ": 377,
      "دٌ": 378,
      "الِ": 379,
      "لَةِ": 380,
      "وَاحِ": 381,
      "ذِ": 382,
      "دُو": 383,
      "عَدَ": 384,
      "الز": 385,
      "لَيْسَ": 386,
      "عْتَ": 387,
      "وَلَمْ": 388,
      "دُّ": 389,
      "يَحْ": 390,
      "ابْنُ": 391,
      "ضِي": 392,
      "ذُ": 393,
      "غَيْرِهِ": 394,
      "فَأَ": 395,
      "زَا": 396,
      "رُّ": 397,
      "حُكْ": 398,
      "لِل": 399,
      "يَكُو": 400,
      "السَّ": 401,
      "وَتَ": 402,
      "الْقَ": 403,
      "نِهِ": 404,
      "مٌ": 405,
      "رِهِ": 406,
      "ذَكَ": 407,
      "مَوْ": 408,
      "شَرْ": 409,
      "صِح": 410,
      "الْبَ": 411,
      "دِّ": 412,
      "حَدَّثَنَا": 413,
      "انْ": 414,
      "مَةِ": 415,
      "غَيْرُ": 416,
      "الْفَ": 417,
      "يَنْ": 418,
      "صُو": 419,
      "أَرْ": 420,
      "دًا": 421,
      "يَعْ": 422,
      "رَجَ": 423,
      "تَعَ": 424,
      "نَحْ": 425,
      "فَقَ": 426,
      "سُو": 427,
      "تَّى": 428,
      "ءُ": 429,
      "سْلِ": 430,
      "مِلْ": 431,
      "وَجَ": 432,
      "أَمْ": 433,
      "ءٌ": 434,
      "وِي": 435,
      "سِهِ": 436,
      "يُو": 437,
      "هِيَ": 438,
      "ضًا": 439,
      "اسْتِ": 440,
      "أَخْ": 441,
      "حَتَّى": 442,
      "مِهِ": 443,
      "ًّا": 444,
      "الْجَ": 445,
      "الَّذِي": 446,
      "بَلْ": 447,
      "مًا": 448,
      "وَقَدْ": 449,
      "وِ": 450,
      "يَأْ": 451,
      "بَةِ": 452,
      "كُنْ": 453,
      "مَهُ": 454,
      "وَقَ": 455,
      "عًا": 456,
      "آخَ": 457,
      "ءٍ": 458,
      "كُلِّ": 459,
      "بِهَا": 460,
      "رَى": 461,
      "شُ": 462,
      "أَعْ": 463,
      "قُلْ": 464,
      "مُهُ": 465,
      "يَوْ": 466,
      "الْحَا": 467,
      "مُحَ": 468,
      "وَقَالَ": 469,
      "ئَ": 470,
      "ابْنِ": 471,
      "جِبُ": 472,
      "إنَّ": 473,
      "نَى": 474,
      "الْعِ": 475,
      "ذِهِ": 476,
      "بَّ": 477,
      "لَهَا": 478,
      "غَا": 479,
      "حَيْ": 480,
      "رَجُ": 481,
      "زِي": 482,
      "قْتَ": 483,
      "وَفِي": 484,
      "طَّ": 485,
      "هُو": 486,
      "عٍ": 487,
      "أَصْ": 488,
      "ظَا": 489,
      "عَةِ": 490,
      "صُ": 491,
      "فَقَالَ": 492,
      "كَانَتْ": 493,
      "الْقَا": 494,
      "شِ": 495,
      "الدَّ": 496,
      "هَذِهِ": 497,
      "بًا": 498,
      "مَرَ": 499,
      "لْزَ": 500,
      "مِّ": 501,
      "كَلَا": 502,
      "نٌ": 503,
      "الزَّ": 504,
      "خِلَافِ": 505,
      "عَمْ": 506,
      "كَالْ": 507,
      "نًا": 508,
      "يَةِ": 509,
      "كِي": 510,
      "فَإِنَّهُ": 511,
      "غُ": 512,
      "ثَلَا": 513,
      "جُوزُ": 514,
      "بِمَا": 515,
      "أَهْ": 516,
      "خَمْ": 517,
      "وَجْ": 518,
      "عٌ": 519,
      "وَإِلَّا": 520,
      "رَةُ": 521,
      "فَرْ": 522,
      "جَّ": 523,
      "وَى": 524,
      "إلَيْهِ": 525,
      "الثَّ": 526,
      "مَسْ": 527,
      "خِي": 528,
      "بِأَنْ": 529,
      "أَبُو": 530,
      "صَح": 531,
      "مُحَمَّ": 532,
      "وُجُو": 533,
      "ؤْ": 534,
      "تَهُ": 535,
      "أَيْضًا": 536,
      "رَةَ": 537,
      "أَحْ": 538,
      "قِيمَ": 539,
      "ظَاهِ": 540,
      "نِّ": 541,
      "رَأَ": 542,
      "نَفْسِهِ": 543,
      "الْمَا": 544,
      "قَوْلُ": 545,
      "أَكْ": 546,
      "يَكُنْ": 547,
      "فٍ": 548,
      "عَبْدِ": 549,
      "حَيْثُ": 550,
      "مَرَّ": 551,
      "ؤَ": 552,
      "عَلَيْ": 553,
      "رُهُ": 554,
      "طْلَ": 555,
      "كَذَا": 556,
      "تَيْنِ": 557,
      "قِيلَ": 558,
      "رَسُو": 559,
      "إذْ": 560,
      "ظُ": 561,
      "فَهُوَ": 562,
      "وَمَا": 563,
      "كَّ": 564,
      "مِنْهَا": 565,
      "فِيهَا": 566,
      "بِخِلَافِ": 567,
      "لِمَ": 568,
      "سِي": 569,
      "مَالِك": 570,
      "نُو": 571,
      "الْأَوَّ": 572,
      "هُنَا": 573,
      "لَفَ": 574,
      "غِي": 575,
      "فَالْ": 576,
      "فَعَ": 577,
      "دَةِ": 578,
      "إِذَا": 579,
      "وَرَ": 580,
      "نِصْ": 581,
      "أَجْ": 582,
      "قًا": 583,
      "وَكَذَا": 584,
      "دَهُ": 585,
      "ضَّ": 586,
      "الْكَ": 587,
      "سٍ": 588,
      "وَقَوْلُهُ": 589,
      "النِّ": 590,
      "نَةِ": 591,
      "فٌ": 592,
      "وَأَمَّا": 593,
      "جِي": 594,
      "اسْتَ": 595,
      "فَتَ": 596,
      "فِيمَا": 597,
      "لِمَا": 598,
      "الْبَا": 599,
      "الْعَبْ": 600,
      "الْمَوْ": 601,
      "قَوْلِ": 602,
      "بٌ": 603,
      "الْأُ": 604,
      "صِحُّ": 605,
      "تَعَا": 606,
      "قٌ": 607,
      "شَرَ": 608,
      "كُلُّ": 609,
      "عْتِ": 610,
      "فَيُ": 611,
      "فًا": 612,
      "مَنِ": 613,
      "الطَّ": 614,
      "مُسْتَ": 615,
      "تِهَا": 616,
      "الْبَيْ": 617,
      "الص": 618,
      "نَهُ": 619,
      "يَقْ": 620,
      "هَلْ": 621,
      "عُو": 622,
      "حْتَ": 623,
      "أَسْ": 624,
      "الْمَالِ": 625,
      "عِهِ": 626,
      "يَكُونَ": 627,
      "بِعَ": 628,
      "يَجُوزُ": 629,
      "مُّ": 630,
      "فِعْ": 631,
      "وَهَذَا": 632,
      "الثَّا": 633,
      "ظْ": 634,
      "بَرَ": 635,
      "صَاحِ": 636,
      "سَبَ": 637,
      "ضٍ": 638,
      "امْ": 639,
      "يَرْ": 640,
      "دَّمَ": 641,
      "زَوْ": 642,
      "ثَا": 643,
      "الْمَسْ": 644,
      "وَلِ": 645,
      "بِإِ": 646,
      "عَدَمِ": 647,
      "تَبَ": 648,
      "لّ": 649,
      "أَقَ": 650,
      "يَلْزَ": 651,
      "ضِيَ": 652,
      "أَلْ": 653,
      "وَالْمُ": 654,
      "كِتَا": 655,
      "يَمْ": 656,
      "كِنْ": 657,
      "كَذَلِكَ": 658,
      "وَإِنَّ": 659,
      "عَلَيْهَا": 660,
      "جَازَ": 661,
      "لِلْمُ": 662,
      "فَةَ": 663,
      "قَّ": 664,
      "أَشْ": 665,
      "خْتَ": 666,
      "تَعَالَى": 667,
      "قٍ": 668,
      "مَاتَ": 669,
      "أَحَدُ": 670,
      "بِذَلِكَ": 671,
      "الْخَ": 672,
      "بَعْضُ": 673,
      "يَكُونُ": 674,
      "مِمَّا": 675,
      "يَبْ": 676,
      "الد": 677,
      "تٍ": 678,
      "لِيَ": 679,
      "خَذَ": 680,
      "بَهُ": 681,
      "الْإِمَا": 682,
      "الْعُ": 683,
      "يَسْتَ": 684,
      "طَلَ": 685,
      "قُولُ": 686,
      "الْأَرْ": 687,
      "شْتَرِي": 688,
      "عُهُ": 689,
      "لَمُ": 690,
      "الِا": 691,
      "وَهِيَ": 692,
      "مَلَ": 693,
      "َّةُ": 694,
      "فَإِذَا": 695,
      "قِيَ": 696,
      "كُمْ": 697,
      "حَقِّ": 698,
      "رَكَ": 699,
      "أَلَ": 700,
      "ذَّ": 701,
      "الْأَصْ": 702,
      "الْوَا": 703,
      "قْرَا": 704,
      "وَاحِدٍ": 705,
      "كَوْ": 706,
      "سَّ": 707,
      "نُهُ": 708,
      "تَقَدَّمَ": 709,
      "غَيْرَ": 710,
      "الْحُ": 711,
      "يِّنَ": 712,
      "أَوَّ": 713,
      "تَوَ": 714,
      "الْمُصَ": 715,
      "عَلَّ": 716,
      "وَمَ": 717,
      "وَمَنْ": 718,
      "رَادَ": 719,
      "بِلَا": 720,
      "اُ": 721,
      "ذَكَرَ": 722,
      "ِيَةِ": 723,
      "ثَلَاثَ": 724,
      "الشَّا": 725,
      "وَنَحْ": 726,
      "رَّا": 727,
      "شَيْءٍ": 728,
      "مِنْهُمَا": 729,
      "وَإِنَّمَا": 730,
      "يِ": 731,
      "دُهُ": 732,
      "عَيَّ": 733,
      "مَةَ": 734,
      "حِينَ": 735,
      "وَلَيْسَ": 736,
      "ثِي": 737,
      "عَهُ": 738,
      "الْمُسْتَ": 739,
      "دَيْ": 740,
      "الْعَقْ": 741,
      "وَقْ": 742,
      "بِتَ": 743,
      "الْجُ": 744,
      "أَرْبَ": 745,
      "قَطَ": 746,
      "جَمِي": 747,
      "أَكْثَ": 748,
      "كُونُ": 749,
      "ئًا": 750,
      "ابْ": 751,
      "الْقِ": 752,
      "أَوْلَى": 753,
      "مَلُ": 754,
      "صَحَّ": 755,
      "صَلَا": 756,
      "وَنَ": 757,
      "عَيْ": 758,
      "الزَّوْ": 759,
      "بِغَيْرِ": 760,
      "قَتْ": 761,
      "يَمِي": 762,
      "تِّ": 763,
      "ُّو": 764,
      "بِّ": 765,
      "بِأَنَّ": 766,
      "رَةٍ": 767,
      "الْآ": 768,
      "السُّ": 769,
      "الْعَا": 770,
      "مُسْلِ": 771,
      "خَرَجَ": 772,
      "بَلَ": 773,
      "رْهَ": 774,
      "كُل": 775,
      "دُونَ": 776,
      "زَيْ": 777,
      "الْمُصَنِّ": 778,
      "الْمَذْ": 779,
      "وَإِذَا": 780,
      "النَّبِي": 781,
      "فَلَوْ": 782,
      "يُعْ": 783,
      "أَفْ": 784,
      "النَّا": 785,
      "فَرَ": 786,
      "مِا": 787,
      "يَوْمَ": 788,
      "مِائَ": 789,
      "رَأْ": 790,
      "الْغَ": 791,
      "تَنْ": 792,
      "إنَّمَا": 793,
      "ظِ": 794,
      "الرِّ": 795,
      "يَجِبُ": 796,
      "خُو": 797,
      "مَانِ": 798,
      "فِهِ": 799,
      "قِيَا": 800,
      "بِقَوْلِهِ": 801,
      "تَعْ": 802,
      "اشْتَ": 803,
      "عُمَرَ": 804,
      "وَمُ": 805,
      "أَهْلِ": 806,
      "بُهُ": 807,
      "بِيَ": 808,
      "يَخْ": 809,
      "حٍ": 810,
      "رْتَ": 811,
      "يُمْ": 812,
      "شَيْئًا": 813,
      "حَدِي": 814,
      "لِفَ": 815,
      "جِّ": 816,
      "هْرِ": 817,
      "وَعَ": 818,
      "خَلَ": 819,
      "وَاحِدَ": 820,
      "عَى": 821,
      "مُطْلَ": 822,
      "ئِهِ": 823,
      "أَقْ": 824,
      "وَقِيلَ": 825,
      "قَامَ": 826,
      "وَاءٌ": 827,
      "شَيْءٌ": 828,
      "رَضِيَ": 829,
      "حٌ": 830,
      "قِهِ": 831,
      "ؤُ": 832,
      "الْخُ": 833,
      "الْمَنْ": 834,
      "يَسْ": 835,
      "دَّةِ": 836,
      "ثُلُ": 837,
      "تَحْ": 838,
      "كِهِ": 839,
      "الْقُ": 840,
      "الْجِ": 841,
      "عَةَ": 842,
      "الْأَوَّلِ": 843,
      "كُلَّ": 844,
      "لَيْ": 845,
      "حُكْمِ": 846,
      "أَنَّهَا": 847,
      "يَأْتِي": 848,
      "مَحَ": 849,
      "لَهُمْ": 850,
      "امْرَأَ": 851,
      "فُو": 852,
      "غَيْرُهُ": 853,
      "آخَرَ": 854,
      "بُّ": 855,
      "ضُو": 856,
      "أُخْ": 857,
      "مَعْنَى": 858,
      "يَصِحُّ": 859,
      "دِرْهَ": 860,
      "الصَّلَا": 861,
      "دَتْ": 862,
      "وَاهُ": 863,
      "مَنُ": 864,
      "الِاسْتِ": 865,
      "خَمْسَ": 866,
      "الضَّ": 867,
      "شِي": 868,
      "بَةُ": 869,
      "كِّ": 870,
      "وَبِ": 871,
      "زَوَّ": 872,
      "وَجَبَ": 873,
      "زَّ": 874,
      "ضِهِ": 875,
      "بَدَ": 876,
      "قُّ": 877,
      "وَحَ": 878,
      "ظْهَ": 879,
      "أَخَذَ": 880,
      "بَرُ": 881,
      "ضَى": 882,
      "حَقَّ": 883,
      "جَوَا": 884,
      "لِأَنَّهَا": 885,
      "مِنْهُمْ": 886,
      "نَقْ": 887,
      "مُتَ": 888,
      "نَّا": 889,
      "الْوَقْ": 890,
      "وَقَعَ": 891,
      "ذٍ": 892,
      "حْرِ": 893,
      "صَارَ": 894,
      "ذَكَرَهُ": 895,
      "تَقْ": 896,
      "مَحْ": 897,
      "فَتْ": 898,
      "بَيْنَهُمَا": 899,
      "فَقَدْ": 900,
      "بَقِيَ": 901,
      "أَمَّا": 902,
      "فَّا": 903,
      "مَعَهُ": 904,
      "يَدْ": 905,
      "سْلَا": 906,
      "رَيْ": 907,
      "عِتْ": 908,
      "قَالَهُ": 909,
      "ءً": 910,
      "خِيَا": 911,
      "وَاَ": 912,
      "الْعَبْدِ": 913,
      "عِبَا": 914,
      "مِلْكِ": 915,
      "قَةِ": 916,
      "نَعَمْ": 917,
      "وَالِ": 918,
      "الْمَعْ": 919,
      "الْمَرْ": 920,
      "رَحِ": 921,
      "مِثْلِ": 922,
      "لَكِنْ": 923,
      "يُقْ": 924,
      "فَلَ": 925,
      "فَلَمْ": 926,
      "بَيِّنَ": 927,
      "وَمِنْ": 928,
      "الَّتِي": 929,
      "الْحِ": 930,
      "طِي": 931,
      "سَنَ": 932,
      "يِي": 933,
      "هِي": 934,
      "عَةٍ": 935,
      "رَاءَ": 936,
      "رَجُلٍ": 937,
      "الْبُ": 938,
      "بِنَا": 939,
      "غِ": 940,
      "لِفُ": 941,
      "بَعْضِ": 942,
      "بَعْدَهُ": 943,
      "أَمَ": 944,
      "جُزْ": 945,
      "لا": 946,
      "قُلْتُ": 947,
      "تَرْ": 948,
      "بَتَ": 949,
      "تَى": 950,
      "اعْتِ": 951,
      "الْمُشْتَرِي": 952,
      "الْوَلَ": 953,
      "مَالِكٍ": 954,
      "ئْ": 955,
      "يَضْ": 956,
      "نَاهُ": 957,
      "بَغِي": 958,
      "نَظَ": 959,
      "ثْبُ": 960,
      "أَخْبَرَ": 961,
      "فَةِ": 962,
      "قَدَّ": 963,
      "بِمُ": 964,
      "فَلْ": 965,
      "نَبِي": 966,
      "سَيِّ": 967,
      "الْمُسْلِ": 968,
      "َّةَ": 969,
      "ذُو": 970,
      "الظ": 971,
      "لَمَ": 972,
      "حُكْمُ": 973,
      "تَصَ": 974,
      "سَوَاءٌ": 975,
      "أُمِّ": 976,
      "الرُّ": 977,
      "عِنْدَهُ": 978,
      "بَةَ": 979,
      "فَّ": 980,
      "الْآخَ": 981,
      "دَةُ": 982,
      "أَحَدُهُمَا": 983,
      "قَالُ": 984,
      "نِيَ": 985,
      "صَى": 986,
      "الرَّا": 987,
      "ئِذٍ": 988,
      "تُو": 989,
      "مَانَ": 990,
      "مِنَ": 991,
      "شْتَرَ": 992,
      "اخْ": 993,
      "بِأَنَّهُ": 994,
      "مُطْلَقًا": 995,
      "حُر": 996,
      "وَكَذَلِكَ": 997,
      "عَشَرَ": 998,
      "عَبْدُ": 999,
      "عَةُ": 1000,
      "بَّا": 1001,
      "الشَّرْ": 1002,
      "رَةٌ": 1003,
      "مَرْ": 1004,
      "يَفْ": 1005,
      "عَقْ": 1006,
      "لَزِ": 1007,
      "ضَرَ": 1008,
      "تَأَ": 1009,
      "للَّ": 1010,
      "مَةُ": 1011,
      "يَّا": 1012,
      "رَةً": 1013,
      "رِينَ": 1014,
      "نَقَ": 1015,
      "غْنِي": 1016,
      "يَعْنِي": 1017,
      "دَّعَى": 1018,
      "أَحْمَ": 1019,
      "الْبَائِ": 1020,
      "فَسَ": 1021,
      "صَحِي": 1022,
      "فُهُ": 1023,
      "زَوْجَ": 1024,
      "عَرَ": 1025,
      "فَقَطْ": 1026,
      "الْفَرْ": 1027,
      "جِعُ": 1028,
      "طَالِ": 1029,
      "يُنْ": 1030,
      "تُهَا": 1031,
      "لَتْ": 1032,
      "وَكَانَ": 1033,
      "يُجْ": 1034,
      "لِمَنْ": 1035,
      "صَدَ": 1036,
      "الشَّيْ": 1037,
      "وَذَلِكَ": 1038,
      "بِحَ": 1039,
      "دَةَ": 1040,
      "قَهُ": 1041,
      "فَلَهُ": 1042,
      "الشُّ": 1043,
      "شَاءَ": 1044,
      "هٌ": 1045,
      "رَمَ": 1046,
      "بِنْ": 1047,
      "طُو": 1048,
      "زَوَّجَ": 1049,
      "ذِّ": 1050,
      "دَيْنِ": 1051,
      "أَقَرَّ": 1052,
      "رِكَ": 1053,
      "كَال": 1054,
      "هَبَ": 1055,
      "عَتْ": 1056,
      "يَدِ": 1057,
      "نِهَا": 1058,
      "الْقَاضِي": 1059,
      "رَادُ": 1060,
      "كَلَامِ": 1061,
      "تَفْ": 1062,
      "زِيَا": 1063,
      "كَافِ": 1064,
      "مِلَ": 1065,
      "مَجْ": 1066,
      "سَلَ": 1067,
      "وَضَ": 1068,
      "عْتُ": 1069,
      "خَيْ": 1070,
      "رَدُّ": 1071,
      "شَهَا": 1072,
      "رَجُلٌ": 1073,
      "مَالِهِ": 1074,
      "قِّ": 1075,
      "فُلَا": 1076,
      "حِينَئِذٍ": 1077,
      "رَاءِ": 1078,
      "رِيَ": 1079,
      "زُو": 1080,
      "حَلَفَ": 1081,
      "الْوَصِي": 1082,
      "مُحَمَّدٍ": 1083,
      "بَلُ": 1084,
      "وَعَلَى": 1085,
      "هَةِ": 1086,
      "رَحِمَهُ": 1087,
      "وِهِ": 1088,
      "مَسْأَلَ": 1089,
      "الثَّانِي": 1090,
      "عَةٌ": 1091,
      "كْرِ": 1092,
      "وَغَيْرِهِ": 1093,
      "حَقُّ": 1094,
      "نِّي": 1095,
      "الْغَا": 1096,
      "أُجْ": 1097,
      "ثَةِ": 1098,
      "سَمِ": 1099,
      "كِرَ": 1100,
      "زَمَ": 1101,
      "مُنْ": 1102,
      "مِثْلُ": 1103,
      "وَبَيْنَ": 1104,
      "يَجْ": 1105,
      "بْنَ": 1106,
      "رَسُولُ": 1107,
      "الْعَقْدِ": 1108,
      "عَنِ": 1109,
      "لَيْنِ": 1110,
      "إِلَى": 1111,
      "فَعَلَ": 1112,
      "الْأَمْ": 1113,
      "رَقَ": 1114,
      "ِّيَ": 1115,
      "كَيْ": 1116,
      "كِنَّ": 1117,
      "دَخَلَ": 1118,
      "دِهِمَا": 1119,
      "قَطْ": 1120,
      "صُّ": 1121,
      "لَفْ": 1122,
      "قَبْلَهُ": 1123,
      "وَلَهُ": 1124,
      "وَأَنْ": 1125,
      "أَكْثَرَ": 1126,
      "وِّ": 1127,
      "بَرِ": 1128,
      "يُصَ": 1129,
      "الْجَا": 1130,
      "صِحَّ": 1131,
      "ضَاءِ": 1132,
      "نَحْوِ": 1133,
      "عِلْ": 1134,
      "بِمَنْ": 1135,
      "ُّلُ": 1136,
      "رِوَا": 1137,
      "إحْ": 1138,
      "يَقُو": 1139,
      "كَسْ": 1140,
      "أَلَةِ": 1141,
      "يَكْ": 1142,
      "حَمْ": 1143,
      "الدَّا": 1144,
      "رْبِ": 1145,
      "طْلَا": 1146,
      "يُؤْ": 1147,
      "سَائِ": 1148,
      "يَأْخُ": 1149,
      "لِّي": 1150,
      "عَةً": 1151,
      "فَهُ": 1152,
      "الْمَجْ": 1153,
      "لِيِّ": 1154,
      "رَجَعَ": 1155,
      "ضٌ": 1156,
      "نَصِي": 1157,
      "سِمِ": 1158,
      "أَرَادَ": 1159,
      "يَقُولُ": 1160,
      "وَصِي": 1161,
      "سَبْ": 1162,
      "الدَّيْنِ": 1163,
      "الْغُ": 1164,
      "لَةُ": 1165,
      "وَارِ": 1166,
      "هٍ": 1167,
      "عَامِ": 1168,
      "الْإِمَامِ": 1169,
      "رَتْ": 1170,
      "عَادَ": 1171,
      "عَمَ": 1172,
      "تَأْ": 1173,
      "أُو": 1174,
      "لِكُ": 1175,
      "صَلَ": 1176,
      "الْفُ": 1177,
      "مِينَ": 1178,
      "طٍ": 1179,
      "رَأَيْ": 1180,
      "لُوا": 1181,
      "يَلْزَمُهُ": 1182,
      "احْ": 1183,
      "كَاتَ": 1184,
      "السَّا": 1185,
      "يَّنَ": 1186,
      "الرَّجُ": 1187,
      "لِهَا": 1188,
      "لَكَ": 1189,
      "ًى": 1190,
      "دَفْ": 1191,
      "بَيْعِ": 1192,
      "أَحَدِهِمَا": 1193,
      "وَطْ": 1194,
      "سَهْ": 1195,
      "ذُكِرَ": 1196,
      "حِهِ": 1197,
      "الْمُعْتَ": 1198,
      "أَبِيهِ": 1199,
      "وَعَلَيْهِ": 1200,
      "ثَوْ": 1201,
      "قُهُ": 1202,
      "الْقَاسِمِ": 1203,
      "ثَبَتَ": 1204,
      "مَّنْ": 1205,
      "مَّةِ": 1206,
      "شَهِ": 1207,
      "َّةٍ": 1208,
      "مِلُ": 1209,
      "حَنِي": 1210,
      "شَرْحِ": 1211,
      "لَةَ": 1212,
      "عِيُّ": 1213,
      "َّاهِ": 1214,
      "قَدْرِ": 1215,
      "لِأَ": 1216,
      "فَى": 1217,
      "ثَمَ": 1218,
      "يُقَالُ": 1219,
      "يُحْ": 1220,
      "فَاسِ": 1221,
      "مَثَ": 1222,
      "قِيمَةِ": 1223,
      "حَنِيفَةَ": 1224,
      "الْكِتَا": 1225,
      "صَرَّ": 1226,
      "سَهُ": 1227,
      "الْمُصَنِّفِ": 1228,
      "الْمَرْأَ": 1229,
      "بَيَا": 1230,
      "طَرِي": 1231,
      "عَدَمُ": 1232,
      "الثَّمَنِ": 1233,
      "وَاَللَّ": 1234,
      "الْأَرْضِ": 1235,
      "الْمَذْكُو": 1236,
      "هَى": 1237,
      "نَعُ": 1238,
      "تِلْ": 1239,
      "مَكَّ": 1240,
      "عَلَيْهِمْ": 1241,
      "ظْهَرُ": 1242,
      "يَثْبُ": 1243,
      "رَاهِ": 1244,
      "وَأُ": 1245,
      "هَرَ": 1246,
      "قُلْت": 1247,
      "قَبْضِ": 1248,
      "تَسْ": 1249,
      "مَاءِ": 1250,
      "بِالتَّ": 1251,
      "لِيُّ": 1252,
      "تَانِ": 1253,
      "وَجْهُ": 1254,
      "مَالِكٌ": 1255,
      "الْفِ": 1256,
      "فَرَّ": 1257,
      "دِرْهَمٍ": 1258,
      "أَبْ": 1259,
      "جَعْ": 1260,
      "جَاءَ": 1261,
      "مُتَعَ": 1262,
      "كِنُ": 1263,
      "الصِّ": 1264,
      "الْهِ": 1265,
      "تْهُ": 1266,
      "بِقَ": 1267,
      "الْمُو": 1268,
      "السِّ": 1269,
      "الثُّلُ": 1270,
      "لِعَدَمِ": 1271,
      "الْمُدَ": 1272,
      "رَبِّ": 1273,
      "كْرَهُ": 1274,
      "بَائِ": 1275,
      "دَعْ": 1276,
      "مِّي": 1277,
      "الْمَشْ": 1278,
      "مُحَمَّدُ": 1279,
      "رَسُولَ": 1280,
      "الْبَيْعِ": 1281,
      "بَاعَ": 1282,
      "أَعْلَمُ": 1283,
      "أَخْبَرَنَا": 1284,
      "مَثَلًا": 1285,
      "سَعِي": 1286,
      "نْثَ": 1287,
      "يَدِهِ": 1288,
      "ثًا": 1289,
      "مَقْ": 1290,
      "الْخَا": 1291,
      "فَلَيْسَ": 1292,
      "بِالْإِ": 1293,
      "رَدَّ": 1294,
      "وَالتَّ": 1295,
      "جَرَّ": 1296,
      "الْمَتْ": 1297,
      "َّةٌ": 1298,
      "بَابِ": 1299,
      "نِيُّ": 1300,
      "وَكِّ": 1301,
      "تِلْكَ": 1302,
      "رَكْ": 1303,
      "بَعْضُهُمْ": 1304,
      "يُسَ": 1305,
      "نِكَا": 1306,
      "انْتِ": 1307,
      "إِي": 1308,
      "يُؤَ": 1309,
      "يَلْزَمُ": 1310,
      "فِّ": 1311,
      "تَلَ": 1312,
      "صَوْ": 1313,
      "فِعْلِ": 1314,
      "بَةٍ": 1315,
      "ظَاهِرٌ": 1316,
      "قَى": 1317,
      "الطَّلَا": 1318,
      "لَّقَ": 1319,
      "جٍ": 1320,
      "شَهْ": 1321,
      "لاَ": 1322,
      "هَبِ": 1323,
      "حَدِيثِ": 1324,
      "عَلَيَّ": 1325,
      "نُّ": 1326,
      "بَطَلَ": 1327,
      "يُّ": 1328,
      "دَّعِي": 1329,
      "ثْنَا": 1330,
      "شَّ": 1331,
      "فَعُ": 1332,
      "رَاجِ": 1333,
      "سْلَامِ": 1334,
      "مَيِّ": 1335,
      "الْمَيِّ": 1336,
      "كَثِي": 1337,
      "يَةُ": 1338,
      "ثٍ": 1339,
      "يَشْ": 1340,
      "رُمُ": 1341,
      "حِلُّ": 1342,
      "وَتُ": 1343,
      "الْعِتْ": 1344,
      "انْتَ": 1345,
      "نَعَ": 1346,
      "فَلِ": 1347,
      "بُدَّ": 1348,
      "ئُ": 1349,
      "الْمُتَ": 1350,
      "الذَّ": 1351,
      "الْإِمَامُ": 1352,
      "عَلِمَ": 1353,
      "مِثْلُهُ": 1354,
      "مَوْضِ": 1355,
      "ِّيَا": 1356,
      "نَفَقَ": 1357,
      "يُعَ": 1358,
      "شْتَرَطُ": 1359,
      "الْمَقْ": 1360,
      "ظَاهِرُ": 1361,
      "الْآخَرِ": 1362,
      "خَذُ": 1363,
      "خَّ": 1364,
      "مَّلْ": 1365,
      "وُقُو": 1366,
      "الدُّ": 1367,
      "آخِ": 1368,
      "ظِي": 1369,
      "يُفْ": 1370,
      "كُلٍّ": 1371,
      "مُعَيَّ": 1372,
      "الرَّوْ": 1373,
      "هَدْ": 1374,
      "الط": 1375,
      "تِيَا": 1376,
      "اللّ": 1377,
      "الشَّارِ": 1378,
      "جَائِ": 1379,
      "التَّعْ": 1380,
      "يَدْخُ": 1381,
      "ضَهُ": 1382,
      "وَنَحْوِهِ": 1383,
      "إِسْ": 1384,
      "نَافِ": 1385,
      "شَرِي": 1386,
      "زٌ": 1387,
      "فَكَانَ": 1388,
      "الْمَتْنِ": 1389,
      "مَفْ": 1390,
      "بَكْ": 1391,
      "أَعْتَقَ": 1392,
      "جِنْ": 1393,
      "وَاَللَّهُ": 1394,
      "سِتَّ": 1395,
      "يَجِ": 1396,
      "الْأَوَّلُ": 1397,
      "وَكِي": 1398,
      "زَادَ": 1399,
      "ضَةِ": 1400,
      "فَصْ": 1401,
      "دَةٍ": 1402,
      "دَةٌ": 1403,
      "مَّى": 1404,
      "لَمَّا": 1405,
      "هَبُ": 1406,
      "تٌ": 1407,
      "دِيَ": 1408,
      "قَةً": 1409,
      "مِلْكِهِ": 1410,
      "النِّكَا": 1411,
      "بَتِهِ": 1412,
      "حِصَّ": 1413,
      "حَاجَ": 1414,
      "وَالث": 1415,
      "فَوْ": 1416,
      "سٌ": 1417,
      "لِمُ": 1418,
      "صْرِ": 1419,
      "دَاءِ": 1420,
      "يَةٌ": 1421,
      "عِشْ": 1422,
      "عَنْهَا": 1423,
      "الْحَاكِ": 1424,
      "لَةٍ": 1425,
      "يَقْتَ": 1426,
      "قُطُ": 1427,
      "رُونَ": 1428,
      "جَمِيعِ": 1429,
      "جِدِ": 1430,
      "رَوَاهُ": 1431,
      "حَرَّ": 1432,
      "دَلِي": 1433,
      "يُعْتَ": 1434,
      "عُمْ": 1435,
      "يُوسُ": 1436,
      "كٍ": 1437,
      "الْمَوْلَى": 1438,
      "فَتْحِ": 1439,
      "تُّ": 1440,
      "أَدْ": 1441,
      "بِسَ": 1442,
      "جَمْ": 1443,
      "وِلَا": 1444,
      "الْوَلَدِ": 1445,
      "لِإِ": 1446,
      "وُضُو": 1447,
      "صِّ": 1448,
      "مِمَّنْ": 1449,
      "الْأَصَح": 1450,
      "نِينَ": 1451,
      "لِتَ": 1452,
      "الصَّلَاةِ": 1453,
      "مُعَا": 1454,
      "يَذْ": 1455,
      "وَعَنْ": 1456,
      "رَيْنِ": 1457,
      "اعْتِبَا": 1458,
      "حَةِ": 1459,
      "وَاجِ": 1460,
      "فَيَكُونُ": 1461,
      "السَّيِّ": 1462,
      "حًا": 1463,
      "نْظُ": 1464,
      "مُتَّ": 1465,
      "يَقَ": 1466,
      "صِيرُ": 1467,
      "سًا": 1468,
      "تَمْ": 1469,
      "الْعَيْ": 1470,
      "لِقَوْلِهِ": 1471,
      "حَهُ": 1472,
      "وُجُوبِ": 1473,
      "شَيْءَ": 1474,
      "ؤُهُ": 1475,
      "الْعَبْدُ": 1476,
      "لَةً": 1477,
      "الْأَجْ": 1478,
      "وَالْمَ": 1479,
      "قُلْنَا": 1480,
      "يَمْلِكُ": 1481,
      "أُخْرَى": 1482,
      "بَةً": 1483,
      "يَنْبَغِي": 1484,
      "رَبُ": 1485,
      "مَانُ": 1486,
      "زِلَةِ": 1487,
      "كَأَنْ": 1488,
      "خَلْ": 1489,
      "يُوسُفَ": 1490,
      "لَهُمَا": 1491,
      "إقْرَا": 1492,
      "لْحَ": 1493,
      "حَقِّهِ": 1494,
      "بِضَ": 1495,
      "كُهُ": 1496,
      "لَزِمَهُ": 1497,
      "ثٌ": 1498,
      "مَامِ": 1499,
      "ابْنَ": 1500,
      "مُسْلِمٍ": 1501,
      "عَلِي": 1502,
      "الْمَبِي": 1503,
      "ئِلَ": 1504,
      "الرَّحْ": 1505,
      "عِبَارَةُ": 1506,
      "تِرَا": 1507,
      "الْمُصَنِّفُ": 1508,
      "أُولَى": 1509,
      "جَرَ": 1510,
      "طَلَا": 1511,
      "بْرَا": 1512,
      "لَكِنَّ": 1513,
      "لَامُ": 1514,
      "يَرْجِعُ": 1515,
      "تَبْ": 1516,
      "الشِّ": 1517,
      "وَفِيهِ": 1518,
      "الْأَعْ": 1519,
      "شَارَ": 1520,
      "نِصْفَ": 1521,
      "نْثَى": 1522,
      "مّ": 1523,
      "ثْنَ": 1524,
      "النُّ": 1525,
      "بَنِي": 1526,
      "قِسْ": 1527,
      "حَاصِ": 1528,
      "الْمُنْ": 1529,
      "أَصْحَا": 1530,
      "بَكْرٍ": 1531,
      "وَغَيْرُهُ": 1532,
      "قَوْلَهُ": 1533,
      "الْمَأْ": 1534,
      "جِنَا": 1535,
      "صَالِ": 1536,
      "خَالِ": 1537,
      "طُلُ": 1538,
      "الْحُكْمِ": 1539,
      "تِلَا": 1540,
      "الصُّ": 1541,
      "بِشَرْ": 1542,
      "فَهَلْ": 1543,
      "فَال": 1544,
      "أَبِ": 1545,
      "قَةٍ": 1546,
      "سْتُ": 1547,
      "عُرْ": 1548,
      "يَى": 1549,
      "جَعَلَ": 1550,
      "طٌ": 1551,
      "مَأْ": 1552,
      "أَوْلَا": 1553,
      "أَبَا": 1554,
      "مَرُ": 1555,
      "أَوْصَى": 1556,
      "وَالْإِ": 1557,
      "كَلَامِهِ": 1558,
      "الْأَصْلِ": 1559,
      "زَيْدٍ": 1560,
      "إنَّهُ": 1561,
      "الْيَمِي": 1562,
      "مُدَّ": 1563,
      "َّةً": 1564,
      "النَّبِيِّ": 1565,
      "يُسْتَ": 1566,
      "أَجْنَبِي": 1567,
      "الذِّ": 1568,
      "خَطَ": 1569,
      "عَقِ": 1570,
      "عُذْ": 1571,
      "بَيْعُ": 1572,
      "يَخْرُ": 1573,
      "فَمَا": 1574,
      "طَالِقٌ": 1575,
      "بَقَا": 1576,
      "رِيِّ": 1577,
      "غَيْرِهَا": 1578,
      "الْوَجْ": 1579,
      "طَالَ": 1580,
      "وُّ": 1581,
      "عَبَّا": 1582,
      "تَرَكَ": 1583,
      "رَتِهِ": 1584,
      "أَسْلَمَ": 1585,
      "اتِّ": 1586,
      "فَرِ": 1587,
      "كَلَ": 1588,
      "يَوْمِ": 1589,
      "خُرُو": 1590,
      "يُمْكِنُ": 1591,
      "أَبَ": 1592,
      "عَتَقَ": 1593,
      "بِرَ": 1594,
      "أَحْمَدُ": 1595,
      "صَرَّحَ": 1596,
      "نِيِّ": 1597,
      "الْمُؤَ": 1598,
      "كُونَ": 1599,
      "عَائِ": 1600,
      "اشْتَرَى": 1601,
      "مُعْتَ": 1602,
      "دُلُّ": 1603,
      "بِمَنْزِلَةِ": 1604,
      "صٍ": 1605,
      "الْيَ": 1606,
      "تَمَ": 1607,
      "بْهَ": 1608,
      "رُدَّ": 1609,
      "رِيُّ": 1610,
      "الْحَجِّ": 1611,
      "بَلَغَ": 1612,
      "لَيْهِ": 1613,
      "وَرِ": 1614,
      "آخَرُ": 1615,
      "جِدَ": 1616,
      "لِلتَّ": 1617,
      "الرَّحْمَنِ": 1618,
      "كْثَ": 1619,
      "يَحْيَى": 1620,
      "يَضْمَنُ": 1621,
      "مَلِ": 1622,
      "قُرْ": 1623,
      "فَهِيَ": 1624,
      "حَج": 1625,
      "سُهُ": 1626,
      "سِّ": 1627,
      "جَارَةِ": 1628,
      "دُخُو": 1629,
      "فَائِ": 1630,
      "عِيِّ": 1631,
      "دِهَا": 1632,
      "لَةٌ": 1633,
      "عَلْ": 1634,
      "الْوَكِي": 1635,
      "وَاحِدٌ": 1636,
      "أَشْهُ": 1637,
      "نْظُرْ": 1638,
      "حَلَّ": 1639,
      "يَةَ": 1640,
      "نَوْ": 1641,
      "جَمَا": 1642,
      "صَدَّ": 1643,
      "الْعَيْنِ": 1644,
      "حْرَا": 1645,
      "فَكَ": 1646,
      "لُهَا": 1647,
      "الصَّحِي": 1648,
      "مِثْلِهِ": 1649,
      "..": 1650,
      "مَةٍ": 1651,
      "مُؤَ": 1652,
      "رَجُلًا": 1653,
      "سُّ": 1654,
      "طِهِ": 1655,
      "مَيْ": 1656,
      "قَابِ": 1657,
      "مَعْلُو": 1658,
      "وَلِلْ": 1659,
      "لِذَلِكَ": 1660,
      "حَرْ": 1661,
      "مَوْتِهِ": 1662,
      "الْجَوَا": 1663,
      "دَفَعَ": 1664,
      "يُرِي": 1665,
      "وَسُ": 1666,
      "مَذْ": 1667,
      "رْتَهِ": 1668,
      "يَقُولَ": 1669,
      "حَدَ": 1670,
      "الْحَدِي": 1671,
      "غَيْرَهُ": 1672,
      "شَهِدَ": 1673,
      "طَلَّقَ": 1674,
      "أَقَلَّ": 1675,
      "ثَمَّ": 1676,
      "قَدَ": 1677,
      "الْإِسْلَامِ": 1678,
      "الزَّوْجَ": 1679,
      "نَظَرٌ": 1680,
      "يَةٍ": 1681,
      "الْمَحْ": 1682,
      "بَاطِ": 1683,
      "وَيَنْ": 1684,
      "أَيَّا": 1685,
      "نَةَ": 1686,
      "يُسْ": 1687,
      "دَارِ": 1688,
      "الثَّلَا": 1689,
      "مِائَةٍ": 1690,
      "الْأُولَى": 1691,
      "عَوْ": 1692,
      "الْجُمُ": 1693,
      "الْعِلْ": 1694,
      "بِنَفْسِهِ": 1695,
      "قَائِ": 1696,
      "بَعْضَ": 1697,
      "أَحَدٌ": 1698,
      "ظَهَرَ": 1699,
      "وَعِنْدَ": 1700,
      "رُوِيَ": 1701,
      "خِلَافًا": 1702,
      "فَعَلَيْهِ": 1703,
      "يُقَ": 1704,
      "الْحَسَ": 1705,
      "الْمُدَوَّ": 1706,
      "وَلِأَنَّ": 1707,
      "بِسَبَ": 1708,
      "وِيَ": 1709,
      "مَهْ": 1710,
      "دَى": 1711,
      "رِثُ": 1712,
      "حَالَ": 1713,
      "وَبِهِ": 1714,
      "الْوَطْ": 1715,
      "الْمَسْجِدِ": 1716,
      "النَّاسِ": 1717,
      "سم": 1718,
      "بِيِّ": 1719,
      "وَلَكِنْ": 1720,
      "ِّيَّةِ": 1721,
      "رَسُولِ": 1722,
      "مَسْأَلَةٌ": 1723,
      "لَّةِ": 1724,
      "لَّذِي": 1725,
      "صَرَ": 1726,
      "أُمَّ": 1727,
      "كَوْنِهِ": 1728,
      "مَكَّةَ": 1729,
      "عَبَّاسٍ": 1730,
      "عَلُ": 1731,
      "ادَّعَى": 1732,
      "لِكَوْ": 1733,
      "صِفَ": 1734,
      "ذِمَّ": 1735,
      "مَنَ": 1736,
      "أَوْجَ": 1737,
      "عِدَّ": 1738,
      "صَاحِبُ": 1739,
      "بِلَ": 1740,
      "كَهُ": 1741,
      "حَالِ": 1742,
      "وَحْ": 1743,
      "الْمِثْلِ": 1744,
      "رَاهُ": 1745,
      "الْمِ": 1746,
      "بِالْأَ": 1747,
      "اخْتَ": 1748,
      "تَزَوَّجَ": 1749,
      "عَرَفَةَ": 1750,
      "بِالْمُ": 1751,
      "أْجِ": 1752,
      "كَلَّ": 1753,
      "رِهَا": 1754,
      "فَاءِ": 1755,
      "وَاحِدَةٍ": 1756,
      "نِصْفُ": 1757,
      "قِيمَتِهِ": 1758,
      "نِصْفِ": 1759,
      "بِإِذْ": 1760,
      "الْمَيِّتِ": 1761,
      "أَصَا": 1762,
      "إِلَّا": 1763,
      "أَحَدِ": 1764,
      "وُجُودِ": 1765,
      "فَصْلٌ": 1766,
      "شَيْخُ": 1767,
      "الْمَوْتِ": 1768,
      "الْقِيَا": 1769,
      "لِنَفْسِهِ": 1770,
      "بَةٌ": 1771,
      "لَانِ": 1772,
      "يُحَ": 1773,
      "غَرَ": 1774,
      "يَثْبُتُ": 1775,
      "كٌ": 1776,
      "عَشْ": 1777,
      "تَوْ": 1778,
      "تُقْ": 1779,
      "يَجُزْ": 1780,
      "كَنَ": 1781,
      "الْمُدَوَّنَةِ": 1782,
      "مٍّ": 1783,
      "يَقْتَضِي": 1784,
      "مَاعِ": 1785,
      "جَابَ": 1786,
      "الْكُ": 1787,
      "بِشَيْءٍ": 1788,
      "وَبَ": 1789,
      "حُرْ": 1790,
      "نّ": 1791,
      "قَاتِ": 1792,
      "الْبَائِعِ": 1793,
      "َّاهِرُ": 1794,
      "الْخِيَا": 1795,
      "حُكْمَ": 1796,
      "يُشْتَرَطُ": 1797,
      "الْحَمْ": 1798,
      "مَةٌ": 1799,
      "سَقَطَ": 1800,
      "عِينَ": 1801,
      "يَذْكُ": 1802,
      "مَتْ": 1803,
      "قَرَّ": 1804,
      "يَغْ": 1805,
      "حِقُّ": 1806,
      "عَلِ": 1807,
      "تَخْ": 1808,
      "ضَمِنَ": 1809,
      "انْتَهَى": 1810,
      "يَضُ": 1811,
      "فَلْيُ": 1812,
      "مَشْ": 1813,
      "إلَيْ": 1814,
      "ثِهِ": 1815,
      "لِغَيْرِهِ": 1816,
      "َيْنِ": 1817,
      "عُلِمَ": 1818,
      "الرَّهْ": 1819,
      "يَحْنَ": 1820,
      "قَيْ": 1821,
      "قَبَ": 1822,
      "قَضَا": 1823,
      "يَصْ": 1824,
      "قَالَتْ": 1825,
      "ذْرَ": 1826,
      "يَدَ": 1827,
      "يَوْمٍ": 1828,
      "وَذَكَرَ": 1829,
      "مَمْ": 1830,
      "كَانِ": 1831,
      "الْوَرَ": 1832,
      "الْمَاءِ": 1833,
      "تَنْبِي": 1834,
      "تَكْ": 1835,
      "ذِكْ": 1836,
      "عَائِشَ": 1837,
      "وَةِ": 1838,
      "تَصْ": 1839,
      "صَيْ": 1840,
      "الزَّرْ": 1841,
      "مَةً": 1842,
      "حُرٌّ": 1843,
      "بَيِّ": 1844,
      "شَهَادَ": 1845,
      "وَالْأَ": 1846,
      "كُلٌّ": 1847,
      "الْمُسْلِمِينَ": 1848,
      "تَحْتَ": 1849,
      "قَةٌ": 1850,
      "قَصْ": 1851,
      "يَزِي": 1852,
      "ضَتْ": 1853,
      "الزَّوْجِ": 1854,
      "فَرٍ": 1855,
      "النَّبِيَّ": 1856,
      "جَوَازِ": 1857,
      "جْتَ": 1858,
      "كَلَامُ": 1859,
      "أَفْضَ": 1860,
      "الْقُرْ": 1861,
      "قَبُو": 1862,
      "يَنْتَ": 1863,
      "الْمَسْأَلَةِ": 1864,
      "الْأَبِ": 1865,
      "كًا": 1866,
      "جْرِ": 1867,
      "طِئَ": 1868,
      "وَجْهَ": 1869,
      "قَطَعَ": 1870,
      "نِيَّةِ": 1871,
      "لِيُ": 1872,
      "دِّي": 1873,
      "بْحِ": 1874,
      "اسْتِحْ": 1875,
      "الْأَصَحِّ": 1876,
      "لَّهِ": 1877,
      "أَنْتِ": 1878,
      "ثُبُو": 1879,
      "زِئُ": 1880,
      "يَانِ": 1881,
      "نَفْسِ": 1882,
      "بِعَيْنِ": 1883,
      "صَاحِبِهِ": 1884,
      "حُو": 1885,
      "لْتَ": 1886,
      "وَجْهٍ": 1887,
      "هُرَيْ": 1888,
      "حَاقَ": 1889,
      "هُرَيْرَةَ": 1890,
      "وَشَ": 1891,
      "عَمَّا": 1892,
      "عْتَا": 1893,
      "الثَّوْ": 1894,
      "شَرَطَ": 1895,
      "وَاحِدَةً": 1896,
      "هَدَ": 1897,
      "صِحَّةِ": 1898,
      "اثْنَ": 1899,
      "نَصَّ": 1900,
      "النِّصْ": 1901,
      "عَيْنِ": 1902,
      "أَنَا": 1903,
      "دَبَّ": 1904,
      "أَخْرَجَ": 1905,
      "يَحْصُ": 1906,
      "تَقْدِي": 1907,
      "الْمِلْكِ": 1908,
      "خْتَا": 1909,
      "بَانَ": 1910,
      "غَلَ": 1911,
      "بَيْنَهُ": 1912,
      "تًا": 1913,
      "حَصَلَ": 1914,
      "رِفَ": 1915,
      "وَجْهِ": 1916,
      "بَأْ": 1917,
      "دَةً": 1918,
      "صَرُّ": 1919,
      "وَجَدَ": 1920,
      "كَيْفَ": 1921,
      "أَشْهُرٍ": 1922,
      "اتَّ": 1923,
      "عِوَ": 1924,
      "ضَانَ": 1925,
      "طَرَ": 1926,
      "وَلَدٍ": 1927,
      "أَحَدٍ": 1928,
      "الْبَيْعُ": 1929,
      "الْوَقْفِ": 1930,
      "شَيْخُنَا": 1931,
      "بِمَ": 1932,
      "فَسْ": 1933,
      "سَبِ": 1934,
      "سَمَّى": 1935,
      "رُهَا": 1936,
      "عَدْ": 1937,
      "مُرَا": 1938,
      "يُخْ": 1939,
      "شٍ": 1940,
      "تِدَا": 1941,
      "شَخْ": 1942,
      "طْلُ": 1943,
      "أَوَّلِ": 1944,
      "الْأَنْ": 1945,
      "عَهَا": 1946,
      "رُجُو": 1947,
      "مِثْلَ": 1948,
      "دَّى": 1949,
      "حَدَّثَنِي": 1950,
      "الطَّلَاقِ": 1951,
      "يَقَعُ": 1952,
      "نَهَا": 1953,
      "الشَّافِ": 1954,
      "وَأَخْ": 1955,
      "الْإِقْرَا": 1956,
      "مُتَعَلِّ": 1957,
      "رِثِ": 1958,
      "يَحْتَ": 1959,
      "صَاحِبِ": 1960,
      "زٍ": 1961,
      "وِيُّ": 1962,
      "خَالَفَ": 1963,
      "مُسْلِمٌ": 1964,
      "تُمْ": 1965,
      "كُلُّهُ": 1966,
      "رِبَ": 1967,
      "جِهَةِ": 1968,
      "احْتِ": 1969,
      "تَنْبِيهٌ": 1970,
      "تَيْ": 1971,
      "حَقِي": 1972,
      "يُشْ": 1973,
      "لِلْإِ": 1974,
      "وَالسَّ": 1975,
      "بِيَدِهِ": 1976,
      "لِكُلِّ": 1977,
      "حْتَمَلُ": 1978,
      "وَأَنَّ": 1979,
      "مَعُ": 1980,
      "بَحَ": 1981,
      "ثَمَا": 1982,
      "النَّفْ": 1983,
      "كَرَ": 1984,
      "كَفَّا": 1985,
      "وَاسْتَ": 1986,
      "الْأَخْ": 1987,
      "بَعْضِهِ": 1988,
      "أَحَدَ": 1989,
      "الْإِنْ": 1990,
      "الْمُكَاتَ": 1991,
      "قَيَّ": 1992,
      "نَوَى": 1993,
      "الْمُعْتَمَ": 1994,
      "يُرِيدُ": 1995,
      "بَهَ": 1996,
      "جِهَا": 1997,
      "عَبْدٍ": 1998,
      "وَلَدَتْ": 1999,
      "وَهَ": 2000,
      "سَى": 2001,
      "فَاعِ": 2002,
      "وَلَدِهِ": 2003,
      "نُوا": 2004,
      "قَهَا": 2005,
      "كَرِ": 2006,
      "ظَاهِرُهُ": 2007,
      "الْمَشْهُو": 2008,
      "أَتْ": 2009,
      "وُجِدَ": 2010,
      "يَتَوَ": 2011,
      "مَحَلِّ": 2012,
      "فَفِي": 2013,
      "رَضِ": 2014,
      "مَوْتِ": 2015,
      "مَيْنِ": 2016,
      "عُبَيْ": 2017,
      "ذَكَرْ": 2018,
      "وَأَنَّهُ": 2019,
      "تَنِ": 2020,
      "جُمْ": 2021,
      "طًا": 2022,
      "عَبْدًا": 2023,
      "اقْتَ": 2024,
      "عِنْ": 2025,
      "فِيهِمَا": 2026,
      "إسْ": 2027,
      "وَضْ": 2028,
      "يَدُلُّ": 2029,
      "الْأَشْ": 2030,
      "إخْ": 2031,
      "ته": 2032,
      "وَقْتَ": 2033,
      "نَّةِ": 2034,
      "عُمَرُ": 2035,
      "قِيمَةُ": 2036,
      "الْمَذْهَبِ": 2037,
      "نًى": 2038,
      "رَفْ": 2039,
      "يَصِحَّ": 2040,
      "مَالٌ": 2041,
      "حُجَّ": 2042,
      "دَيْنٍ": 2043,
      "تَهَا": 2044,
      "رَقِي": 2045,
      "مَالٍ": 2046,
      "حَلُّ": 2047,
      "أَخْذُ": 2048,
      "الثُّلُثِ": 2049,
      "اعْتَ": 2050,
      "وَلِأَنَّهُ": 2051,
      "عَطْ": 2052,
      "يُوجَ": 2053,
      "لَحَ": 2054,
      "أَشَارَ": 2055,
      "اللَّهَ": 2056,
      "لْزَمُهُ": 2057,
      "وَالثَّا": 2058,
      "الْمَغْ": 2059,
      "بَأْسَ": 2060,
      "اشْ": 2061,
      "الْقِسْ": 2062,
      "طَّا": 2063,
      "َّتِهِ": 2064,
      "وَصَ": 2065,
      "الْهَ": 2066,
      "قَةُ": 2067,
      "وَالنَّ": 2068,
      "مُونَ": 2069,
      "وَعَنْهُ": 2070,
      "بِهَذَا": 2071,
      "قَرِي": 2072,
      "يَشْتَ": 2073,
      "ذَهَبَ": 2074,
      "الْمُرَادُ": 2075,
      "رٍو": 2076,
      "ذِنَ": 2077,
      "صُولِ": 2078,
      "عَمْرٍو": 2079,
      "أَحْمَدَ": 2080,
      "الْعِتْقِ": 2081,
      "النِّكَاحِ": 2082,
      "دَرَاهِ": 2083,
      "عِشْرِينَ": 2084,
      "الْبِ": 2085,
      "تَرَ": 2086,
      "طَعُ": 2087,
      "بَاعَهُ": 2088,
      "لَاءِ": 2089,
      "قَالُوا": 2090,
      "تِسْ": 2091,
      "تِنَا": 2092,
      "غَالِ": 2093,
      "الرُّجُو": 2094,
      "بَيْتِ": 2095,
      "سَمِعْتُ": 2096,
      "يَظْهَرُ": 2097,
      "كَامِ": 2098,
      "جَرَّدِ": 2099,
      "فَعَلَى": 2100,
      "الْوَقْتِ": 2101,
      "الْمَعْنَى": 2102,
      "ىُّ": 2103,
      "أَجَ": 2104,
      "يَعْتَ": 2105,
      "خَيَّ": 2106,
      "طْلَقَ": 2107,
      "الْمَسْأَلَ": 2108,
      "أَوَّلًا": 2109,
      "عَائِشَةَ": 2110,
      "أَخَ": 2111,
      "نَزَ": 2112,
      "فَرْعٌ": 2113,
      "الْوَاقِ": 2114,
      "كُّ": 2115,
      "لِغَيْرِ": 2116,
      "لَاهُ": 2117,
      "سُفْ": 2118,
      "النَّظَ": 2119,
      "ئِي": 2120,
      "وَابْنُ": 2121,
      "جَهْ": 2122,
      "يُونُ": 2123,
      "مَرَّةً": 2124,
      "فُلَانٍ": 2125,
      "بِمَعْنَى": 2126,
      "تَكُنْ": 2127,
      "الْأَذْرَ": 2128,
      "مَعْنَاهُ": 2129,
      "مَسْأَلَةِ": 2130,
      "بِالْعَ": 2131,
      "الْأُمِّ": 2132,
      "اُسْتُ": 2133,
      "بِحَيْثُ": 2134,
      "قَوْلَ": 2135,
      "الْعِلْمِ": 2136,
      "وَهَلْ": 2137,
      "وَطِئَ": 2138,
      "بَتْ": 2139,
      "سُئِلَ": 2140,
      "الْجِنَا": 2141,
      "خَوْ": 2142,
      "طَلْ": 2143,
      "مُحَمَّدِ": 2144,
      "وَقْتِ": 2145,
      "تَأَمَّلْ": 2146,
      "ؤَا": 2147,
      "الْخِ": 2148,
      "فَيَنْ": 2149,
      "نَسَ": 2150,
      "اُنْظُرْ": 2151,
      "أَخَذَهُ": 2152,
      "نِيَةِ": 2153,
      "مُبَا": 2154,
      "الْبَائِعُ": 2155,
      "الْغَاصِ": 2156,
      "إي": 2157,
      "لِسِ": 2158,
      "اسْتِي": 2159,
      "جِهِ": 2160,
      "بِدُو": 2161,
      "بِقَدْرِ": 2162,
      "فَضْ": 2163,
      "جَائِزٌ": 2164,
      "رِجْ": 2165,
      "يُدْ": 2166,
      "يَمْنَعُ": 2167,
      "يَمُّ": 2168,
      "سَعْ": 2169,
      "صَغِي": 2170,
      "الْحَالِ": 2171,
      "ذُّ": 2172,
      "تَلِفَ": 2173,
      "فِيَ": 2174,
      "خَبَرِ": 2175,
      "الْبَيِّنَ": 2176,
      "الْمُرْتَهِ": 2177,
      "تَعْلِي": 2178,
      "عِتْقِ": 2179,
      "وَدَ": 2180,
      "فَمَنْ": 2181,
      "رَّرَ": 2182,
      "يَوْمًا": 2183,
      "فَلَمَّا": 2184,
      "بَيَّ": 2185,
      "عِهَا": 2186,
      "التَّوْ": 2187,
      "أَكْثَرُ": 2188,
      "الزَّوْجُ": 2189,
      "الْمَرْأَةِ": 2190,
      "بِأَلْ": 2191,
      "النَّقْ": 2192,
      "سَيِّدِهِ": 2193,
      "بَهَا": 2194,
      "مِيِّ": 2195,
      "جٌ": 2196,
      "قَلَ": 2197,
      "يُكْرَهُ": 2198,
      "الْأَسْ": 2199,
      "خَارِ": 2200,
      "قِيمَتُهُ": 2201,
      "سُفْيَا": 2202,
      "أَرَأَيْ": 2203,
      "الْمَدِي": 2204,
      "وَزَ": 2205,
      "سْبَةِ": 2206,
      "هَلَكَ": 2207,
      "عَلَيْهِمَا": 2208,
      "حُهُ": 2209,
      "قَلْ": 2210,
      "يَخْتَ": 2211,
      "كْتَ": 2212,
      "حَاكِ": 2213,
      "تَاجُ": 2214,
      "الشَّهَا": 2215,
      "دِّهِ": 2216,
      "لَامِ": 2217,
      "نَائِ": 2218,
      "طَعَا": 2219,
      "رَمَضَانَ": 2220,
      "بِفَتْحِ": 2221,
      "فَحَ": 2222,
      "بَاقِي": 2223,
      "شَاهِ": 2224,
      "الْأُخْ": 2225,
      "الْأُجْ": 2226,
      "لَزِمَ": 2227,
      "حَبُّ": 2228,
      "ضَاهُ": 2229,
      "زًا": 2230,
      "الْخَمْ": 2231,
      "زَّوْ": 2232,
      "وَفَا": 2233,
      "عَزَّ": 2234,
      "الْحَيْ": 2235,
      "الصَّوْ": 2236,
      "سَلَمَةَ": 2237,
      "أَبِى": 2238,
      "الْحُكْمُ": 2239,
      "يَتْ": 2240,
      "الْوَصِيَّةِ": 2241,
      "يَأْخُذُ": 2242,
      "خِّ": 2243,
      "تَكُونُ": 2244,
      "يَحِلُّ": 2245,
      "تَعَلُّ": 2246,
      "يَرْجِ": 2247,
      "وَّا": 2248,
      "مُخْتَ": 2249,
      "بِهِمْ": 2250,
      "ضُهُ": 2251,
      "أَصْلِ": 2252,
      "الْحَسَنِ": 2253,
      "رَضَ": 2254,
      "يُنَا": 2255,
      "يَتَعَلَّ": 2256,
      "الثَّالِ": 2257,
      "الرَّجُلِ": 2258,
      "إلَيْهَا": 2259,
      "أَلَا": 2260,
      "شُبْهَ": 2261,
      "أَجْلِ": 2262,
      "الصَّلَاةُ": 2263,
      "اخْتِلَا": 2264,
      "الْقَبْضِ": 2265,
      "بِرُ": 2266,
      "تَصِحُّ": 2267,
      "دِينَا": 2268,
      "فَكَذَلِكَ": 2269,
      "قَتَ": 2270,
      "رَبُّ": 2271,
      "وَاتِ": 2272,
      "تِهِمْ": 2273,
      "وَأَرْ": 2274,
      "النَّبِيُّ": 2275,
      "بِنَاءِ": 2276,
      "يُؤْخَذُ": 2277,
      "اعْتِبَارِ": 2278,
      "أَفْضَلُ": 2279,
      "ثَةُ": 2280,
      "جِهَ": 2281,
      "بِهِمَا": 2282,
      "الْفَسْ": 2283,
      "لِلِ": 2284,
      "رَهْ": 2285,
      "نَعْ": 2286,
      "فِيمَنْ": 2287,
      "هَانِ": 2288,
      "شْرِ": 2289,
      "سُنَّ": 2290,
      "وَلِهَذَا": 2291,
      "الْوَطْءِ": 2292,
      "وَحْدَهُ": 2293,
      "صًا": 2294,
      "مَبْ": 2295,
      "يَعْتِ": 2296,
      "شُعْ": 2297,
      "اسْتَأْ": 2298,
      "سَعِيدٍ": 2299,
      "فْرِ": 2300,
      "الْأَلْ": 2301,
      "طْعِ": 2302,
      "دَيْنٌ": 2303,
      "يَسْقُطُ": 2304,
      "رِكَةِ": 2305,
      "بْرَاهِي": 2306,
      "رَمِ": 2307,
      "رْضِ": 2308,
      "وَيَأْ": 2309,
      "مُحَمَّدٌ": 2310,
      "أَثَ": 2311,
      "يَبِي": 2312,
      "نِيٌّ": 2313,
      "الْإِحْرَا": 2314,
      "يَحْرُمُ": 2315,
      "ثَابِ": 2316,
      "حَرَا": 2317,
      "وَافِ": 2318,
      "قَارِ": 2319,
      "انْقِ": 2320,
      "الدَّيْ": 2321,
      "طَرِيقِ": 2322,
      "أَيَّامٍ": 2323,
      "إمَّا": 2324,
      "وَكَّ": 2325,
      "وَخَرَجَ": 2326,
      "الْمُوَكِّ": 2327,
      "دِمَ": 2328,
      "وَالصَّ": 2329,
      "رَاءَةِ": 2330,
      "الْمَبِيعِ": 2331,
      "دَّا": 2332,
      "رَهَا": 2333,
      "كَمَ": 2334,
      "الْأَحْ": 2335,
      "وَيَكُونُ": 2336,
      "الْيَمِينِ": 2337,
      "تَجِبُ": 2338,
      "رَفُ": 2339,
      "أَنْتَ": 2340,
      "جِبِ": 2341,
      "جَاسَ": 2342,
      "ذْرِ": 2343,
      "وَيَحْ": 2344,
      "صٌ": 2345,
      "َّتُهُ": 2346,
      "لِلَّهِ": 2347,
      "طَى": 2348,
      "صِدْ": 2349,
      "مَوْلَى": 2350,
      "يَعْلَمْ": 2351,
      "نَحْوَ": 2352,
      "حَامِ": 2353,
      "ِّينَ": 2354,
      "سَبَقَ": 2355,
      "مَكْ": 2356,
      "سَيْ": 2357,
      "هَيْ": 2358,
      "عُثْ": 2359,
      "شَعْ": 2360,
      "وَأَصْ": 2361,
      "وَلَدِ": 2362,
      "رُوا": 2363,
      "الْجُمُعَةِ": 2364,
      "دَرَاهِمَ": 2365,
      "التِّ": 2366,
      "الْوُضُو": 2367,
      "يَوَا": 2368,
      "الْآخَرُ": 2369,
      "وَوَجْهُ": 2370,
      "رُدُّ": 2371,
      "عُهَا": 2372,
      "بَعِي": 2373,
      "خِلَافُ": 2374,
      "الْأَذْرَعِيُّ": 2375,
      "وَمِثْلُهُ": 2376,
      "عَالِ": 2377,
      "عَبْدِهِ": 2378,
      "الْأَرْبَ": 2379,
      "صَحِيحٌ": 2380,
      "الْإِي": 2381,
      "كَمُ": 2382,
      "الْمُضَا": 2383,
      "الْأَجَ": 2384,
      "التَّصَرُّ": 2385,
      "دَاوُ": 2386,
      "بِشَرْطِ": 2387,
      "قَصَدَ": 2388,
      "حَوْ": 2389,
      "الدّ": 2390,
      "مَلَكَ": 2391,
      "امْرَأَةٍ": 2392,
      "اللّهِ": 2393,
      "تِيَ": 2394,
      "وَهْ": 2395,
      "الْمِلْ": 2396,
      "بِرِ": 2397,
      "بْطِ": 2398,
      "الزُّ": 2399,
      "يَأْكُ": 2400,
      "تَصَرُّ": 2401,
      "الرَّوْضَةِ": 2402,
      "رَوَى": 2403,
      "رَائِ": 2404,
      "لَيْسَتْ": 2405,
      "نَقَصَ": 2406,
      "يَأْخُذَ": 2407,
      "الرَّجُلُ": 2408,
      "وَةٍ": 2409,
      "فَسَا": 2410,
      "يُفِي": 2411,
      "يُقَالَ": 2412,
      "َّائِ": 2413,
      "فَإِنَّهَا": 2414,
      "نَفْسَهُ": 2415,
      "الْكِ": 2416,
      "حَيَا": 2417,
      "بَيْنِ": 2418,
      "رُوعِ": 2419,
      "عَدَمَ": 2420,
      "نَةٍ": 2421,
      "مِيرَا": 2422,
      "لٍّ": 2423,
      "أَذِنَ": 2424,
      "بْتَ": 2425,
      "الْعَمَلِ": 2426,
      "زَالَ": 2427,
      "سَائِرِ": 2428,
      "تَحَ": 2429,
      "تَكُونَ": 2430,
      "مُهَا": 2431,
      "الْمُغْنِي": 2432,
      "فْظِ": 2433,
      "وَلَعَلَّ": 2434,
      "كَسْرِ": 2435,
      "مُعَيَّنٍ": 2436,
      "رَانِ": 2437,
      "زَكَا": 2438,
      "ِّينِ": 2439,
      "لُونَ": 2440,
      "قِيمَةَ": 2441,
      "دَعْوَى": 2442,
      "جَزَ": 2443,
      "كَاتَبَ": 2444,
      "تِلَ": 2445,
      "مُحْتَ": 2446,
      "رِضَ": 2447,
      "دِيُّ": 2448,
      "يُعْلَمُ": 2449,
      "الرَّوْضِ": 2450,
      "إِسْحَاقَ": 2451,
      "يَتِهِ": 2452,
      "مُعْ": 2453,
      "رُشْ": 2454,
      "الْمُفْ": 2455,
      "فَأَمَّا": 2456,
      "الْبَدَ": 2457,
      "هُنَاكَ": 2458,
      "السَّابِ": 2459,
      "الْحَاكِمُ": 2460,
      "إمَا": 2461,
      "قَاضِي": 2462,
      "الْمُدَّعِي": 2463,
      "الْأَقْ": 2464,
      "بَعْدُ": 2465,
      "الْإِسْ": 2466,
      "الْحَرْبِ": 2467,
      "الزِّيَا": 2468,
      "مَعًا": 2469,
      "فَهَذَا": 2470,
      "رَجْ": 2471,
      "مُقْتَ": 2472,
      "رِو": 2473,
      "سَلَّمَ": 2474,
      "حُرَّ": 2475,
      "الزِّ": 2476,
      "عَمْرِو": 2477,
      "ثَلَاثًا": 2478,
      "دٍّ": 2479,
      "تَرَى": 2480,
      "أَتَى": 2481,
      "وَيْ": 2482,
      "حَسَ": 2483,
      "الْمُرَادَ": 2484,
      "الْمُحَرَّ": 2485,
      "بِيرِ": 2486,
      "التَّقْ": 2487,
      "ذِمِّي": 2488,
      "أُمِّهِ": 2489,
      "عَلِيٍّ": 2490,
      "الْوَجْهِ": 2491,
      "رِّي": 2492,
      "رٍّ": 2493,
      "هَّ": 2494,
      "اللُّ": 2495,
      "وَرُ": 2496,
      "الْأَوْلَى": 2497,
      "فَتُ": 2498,
      "مُؤْ": 2499,
      "لْقِي": 2500,
      "شَرْطُ": 2501,
      "الْبَحْرِ": 2502,
      "جُّ": 2503,
      "أَقُولُ": 2504,
      "لِبُ": 2505,
      "مَخْ": 2506,
      "مُحْ": 2507,
      "أَصْلًا": 2508,
      "مُفْ": 2509,
      "يُكَ": 2510,
      "ثَهُ": 2511,
      "شَكَّ": 2512,
      "ثُهُ": 2513,
      "كَوْنِ": 2514,
      "نْطَ": 2515,
      "قَلَّ": 2516,
      "وَاضِ": 2517,
      "سَبُ": 2518,
      "شَرَةِ": 2519,
      "بَيْعُهُ": 2520,
      "رَأْسِ": 2521,
      "الشَّرْطِ": 2522,
      "رِوَايَةِ": 2523,
      "بَطَلَتْ": 2524,
      "أَنَ": 2525,
      "هِشَا": 2526,
      "بَقِي": 2527,
      "يَخْرُجُ": 2528,
      "مُتَعَلِّقٌ": 2529,
      "الْغَيْرِ": 2530,
      "قَةَ": 2531,
      "رَأُ": 2532,
      "فِرَا": 2533,
      "بِنْتِ": 2534,
      "آدَ": 2535,
      "حَائِ": 2536,
      "سَانِ": 2537,
      "وَيَجُوزُ": 2538,
      "عُونَ": 2539,
      "يُقْبَلُ": 2540,
      "الرَّاهِ": 2541,
      "زَوْجَتِهِ": 2542,
      "أَرَأَيْتَ": 2543,
      "بِالْحَ": 2544,
      "تَنَعَ": 2545,
      "الْمُبَا": 2546,
      "خُذُ": 2547,
      "فَرْقَ": 2548,
      "الْكَافِ": 2549,
      "جَارِيَ": 2550,
      "الْقَتْ": 2551,
      "وَنَحْوِ": 2552,
      "يَدْخُلُ": 2553,
      "زِهِ": 2554,
      "بَيْنَهُمْ": 2555,
      "الْبَاقِي": 2556,
      "الْعَبْدَ": 2557,
      "مَفْهُو": 2558,
      "مَالًا": 2559,
      "مُحَرَّ": 2560,
      "وَالْمُرَادُ": 2561,
      "رّ": 2562,
      "الْقَوْلِ": 2563,
      "فَرُ": 2564,
      "فَعَةِ": 2565,
      "دَلَّ": 2566,
      "عِلَّ": 2567,
      "بِيُّ": 2568,
      "رِيمِ": 2569,
      "بَعْدَهَا": 2570,
      "غْتَ": 2571,
      "اجْ": 2572,
      "هًا": 2573,
      "بِأَ": 2574,
      "قَرْ": 2575,
      "يُبَا": 2576,
      "مِائَةِ": 2577,
      "حَاصِلُ": 2578,
      "ثَمَانِيَ": 2579,
      "لَك": 2580,
      "ظَنَّ": 2581,
      "يُوجِبُ": 2582,
      "الْجَمْ": 2583,
      "أَصْلِهِ": 2584,
      "فِعْلِهِ": 2585,
      "الشَّيْخُ": 2586,
      "شَهْرٍ": 2587,
      "دًّا": 2588,
      "وَمِنْهَا": 2589,
      "مَضْ": 2590,
      "لَازِ": 2591,
      "كِتَابِ": 2592,
      "ذِمَّتِهِ": 2593,
      "تَنَا": 2594,
      "قَتَلَ": 2595,
      "نَذَ": 2596,
      "حَي": 2597,
      "اللَّيْ": 2598,
      "مَنْفَعَ": 2599,
      "التَّسْ": 2600,
      "لِلسَّ": 2601,
      "أَوَّلُ": 2602,
      "بِنَاءً": 2603,
      "مَقْصُو": 2604,
      "وَزْ": 2605,
      "وَصَحَّ": 2606,
      "الْيَدِ": 2607,
      "فَةُ": 2608,
      "لِيَّةِ": 2609,
      "الِانْتِ": 2610,
      "صَرِ": 2611,
      "ضَمَّ": 2612,
      "مَالِكِ": 2613,
      "سَنَةً": 2614,
      "بِسَبَبِ": 2615,
      "سَيَأْتِي": 2616,
      "قُطْ": 2617,
      "وَقَفَ": 2618,
      "يَبْقَى": 2619,
      "لَفْظِ": 2620,
      "يَكْفِي": 2621,
      "تَدْ": 2622,
      "مَالَ": 2623,
      "لُزُو": 2624,
      "فِى": 2625,
      "النَّفَقَ": 2626,
      "ئَلَّا": 2627,
      "يُعْتَبَرُ": 2628,
      "خَطَأ": 2629,
      "لِكَوْنِهِ": 2630,
      "يَحْصُلُ": 2631,
      "لَمِ": 2632,
      "عَتَيْنِ": 2633,
      "صَبَ": 2634,
      "خَبَ": 2635,
      "ئِهَا": 2636,
      "الْكِتَابَةِ": 2637,
      "شُو": 2638,
      "ظَّاهِرُ": 2639,
      "عَكْ": 2640,
      "نِثَ": 2641,
      "أُمُّ": 2642,
      "قُتِلَ": 2643,
      "رِيقِ": 2644,
      "ابْتِدَا": 2645,
      "عُذْرٍ": 2646,
      "تُقْبَلُ": 2647,
      "يَذْكُرْ": 2648,
      "وَحُ": 2649,
      "دَّةُ": 2650,
      "ثْبَا": 2651,
      "غَيَّ": 2652,
      "وَلَدُ": 2653,
      "الْفَتْ": 2654,
      "ثَلَاثَةِ": 2655,
      "يَضُرُّ": 2656,
      "بِعَيْنِهِ": 2657,
      "آنِ": 2658,
      "تَّا": 2659,
      "فَإِ": 2660,
      "فَصَارَ": 2661,
      "وَالشَّ": 2662,
      "عِنْدَنَا": 2663,
      "حَقٍّ": 2664,
      "حَقٌّ": 2665,
      "مُوا": 2666,
      "شِرَا": 2667,
      "صَحُّ": 2668,
      "سَنَةٍ": 2669,
      "بَحْ": 2670,
      "أَهْلُ": 2671,
      "الْعَقْدُ": 2672,
      "لَكِنَّهُ": 2673,
      "اتِّفَا": 2674,
      "هِمْ": 2675,
      "رَتُهُ": 2676,
      "أُنْثَى": 2677,
      "الصَّغِي": 2678,
      "رَأَى": 2679,
      "خَمْسَةَ": 2680,
      "بِالنِّ": 2681,
      "ذِكْرِ": 2682,
      "يَقُلْ": 2683,
      "كَشِي": 2684,
      "جَةِ": 2685,
      "سُلَيْ": 2686,
      "شُرُو": 2687,
      "الشَّارِحِ": 2688,
      "الْحَدِيثِ": 2689,
      "مْهُ": 2690,
      "جَهُ": 2691,
      "الْمُدَّةِ": 2692,
      "وَجَلَّ": 2693,
      "لِلْمُشْتَرِي": 2694,
      "الْقِصَا": 2695,
      "الصِّح": 2696,
      "يَحْنَثُ": 2697,
      "زَوِّ": 2698,
      "حَدِيثُ": 2699,
      "الْمُسْلِمِ": 2700,
      "الْمَرْأَةُ": 2701,
      "جَعْفَرٍ": 2702,
      "بِدُونِ": 2703,
      "الْقِيمَةِ": 2704,
      "بِكَ": 2705,
      "رَبِ": 2706,
      "نَةً": 2707,
      "جُهَا": 2708,
      "اخْتِيَا": 2709,
      "أَمَّلْ": 2710,
      "وَقَوْلُ": 2711,
      "تَكَ": 2712,
      "حَبْ": 2713,
      "سْلُ": 2714,
      "ضَرُو": 2715,
      "فَيَحْ": 2716,
      "يَنْقُ": 2717,
      "وِيِّ": 2718,
      "اللّهُ": 2719,
      "الْأَجْنَبِي": 2720,
      "وَيَنْبَغِي": 2721,
      "يَدَيْهِ": 2722,
      "رَهَ": 2723,
      "الْمُحْ": 2724,
      "يَتَعَ": 2725,
      "الْمَذْكُورِ": 2726,
      "الرَّهْنِ": 2727,
      "لِئَلَّا": 2728,
      "صَرِي": 2729,
      "تُك": 2730,
      "ضَعِي": 2731,
      "أَمْكَنَ": 2732,
      "الْأَصْحَا": 2733,
      "ثَلَاثَةٌ": 2734,
      "دَفْعِ": 2735,
      "الْعَيْبِ": 2736,
      "دَهَا": 2737,
      "هَدُ": 2738,
      "التَّفْ": 2739,
      "عْتَبَرُ": 2740,
      "عَمْدًا": 2741,
      "خُولِ": 2742,
      "وَاحِدَةٌ": 2743,
      "وَاَلَّذِي": 2744,
      "ّا": 2745,
      "أَثْ": 2746,
      "لُغَ": 2747,
      "وَلَكِنَّ": 2748,
      "نَحْوُ": 2749,
      "مَسْجِ": 2750,
      "الْمُسْتَأْجِ": 2751,
      "نَقَلَهُ": 2752,
      "الْوَرَثَةِ": 2753,
      "ذًا": 2754,
      "إِلَيْهِ": 2755,
      "لِيمِ": 2756,
      "حُكْمُهُ": 2757,
      "قَتْلِ": 2758,
      "ثَلَاثَةُ": 2759,
      "الْوَلَدُ": 2760,
      "ىَ": 2761,
      "وَكُلُّ": 2762,
      "فْعَةِ": 2763,
      "التَّحْ": 2764,
      "صَلّ": 2765,
      "غَرِ": 2766,
      "وَنَحْوُ": 2767,
      "الظَّ": 2768,
      "السَّيِّدِ": 2769,
      "يَتَّ": 2770,
      "حَبِي": 2771,
      "وَانْ": 2772,
      "يُجْزِئُ": 2773,
      "يَتَعَلَّقُ": 2774,
      "قَضِي": 2775,
      "رِهَ": 2776,
      "صَبِي": 2777,
      "بَعْضٍ": 2778,
      "الثَّانِيَ": 2779,
      "لَحْ": 2780,
      "وَنُ": 2781,
      "الْقَوْ": 2782,
      "لْطَا": 2783,
      "يُرْ": 2784,
      "وَالْفَرْ": 2785,
      "مِثْلَهُ": 2786,
      "بَّرَ": 2787,
      "الْأَمْرِ": 2788,
      "الدِّيَةِ": 2789,
      "طَهُ": 2790,
      "فَارِ": 2791,
      "ثَالِ": 2792,
      "ؤُهَا": 2793,
      "وَمِنْهُ": 2794,
      "لِأَجْلِ": 2795,
      "بِدَلِي": 2796,
      "كَتَ": 2797,
      "صْبِ": 2798,
      "أَخْذِ": 2799,
      "إبْ": 2800,
      "لِابْنِ": 2801,
      "حَجَ": 2802,
      "عْتَقَ": 2803,
      "تَبَعًا": 2804,
      "الظُّ": 2805,
      "إحْدَا": 2806,
      "الْمَجْمُو": 2807,
      "الْخِلَافِ": 2808,
      "فْعِ": 2809,
      "يَسْتَحِقُّ": 2810,
      "الْمَقْصُو": 2811,
      "الْحَاكِمِ": 2812,
      "قَبَضَ": 2813,
      "بِالنِّسْبَةِ": 2814,
      "زَّا": 2815,
      "وَلِي": 2816,
      "وَلِيِّ": 2817,
      "يَرِ": 2818,
      "بَعَ": 2819,
      "دُوا": 2820,
      "الْكَفَّا": 2821,
      "الثَّانِيَةِ": 2822,
      "رُشْدٍ": 2823,
      "إجْ": 2824,
      "وَظَاهِرُ": 2825,
      "قَلِي": 2826,
      "رْجِعُ": 2827,
      "الْمُتَوَ": 2828,
      "عَاقِ": 2829,
      "الْأَصْلُ": 2830,
      "مِيَ": 2831,
      "أَمَرَ": 2832,
      "مَتَى": 2833,
      "تَمَّ": 2834,
      "مِلِ": 2835,
      "نَةُ": 2836,
      "رِبْ": 2837,
      "الْمُقَ": 2838,
      "الْإِرْ": 2839,
      "قَبْضِهِ": 2840,
      "الشَّرِي": 2841,
      "لِلزَّوْ": 2842,
      "السَّبَ": 2843,
      "الْعِدَّةِ": 2844,
      "أَصْلُ": 2845,
      "ذَّرَ": 2846,
      "قَدَّمُ": 2847,
      "طِيَ": 2848,
      "الْكُلِّ": 2849,
      "هَايَةِ": 2850,
      "كَانُوا": 2851,
      "مَعَهَا": 2852,
      "الْبَلَ": 2853,
      "كَلَامَ": 2854,
      "يَخْفَى": 2855,
      "شَرِيكِهِ": 2856,
      "عِنْدِي": 2857,
      "وَغَيْرُ": 2858,
      "ضَمَانَ": 2859,
      "تَقَدِّ": 2860,
      "غَائِ": 2861,
      "بِمُجَرَّدِ": 2862,
      "اشْتِرَا": 2863,
      "عِيَ": 2864,
      "رَفَ": 2865,
      "كَرَا": 2866,
      "التَّرْ": 2867,
      "تَعَيَّنَ": 2868,
      "...": 2869,
      "يُوجَدْ": 2870,
      "وَالثَّانِي": 2871,
      "ارْتَ": 2872,
      "رَبِي": 2873,
      "نَص": 2874,
      "مُحْرِ": 2875,
      "غَلَّ": 2876,
      "وَاحِدًا": 2877,
      "الْقَضَاءِ": 2878,
      "أَحْرَمَ": 2879,
      "وَرَثَ": 2880,
      "تَصَدَّ": 2881,
      "يَجِدْ": 2882,
      "إرْ": 2883,
      "نا": 2884,
      "أَقَامَ": 2885,
      "رُمَ": 2886,
      "الْمُشْتَ": 2887,
      "نُهَا": 2888,
      "رَّةِ": 2889,
      "سُدُ": 2890,
      "الزَّكَا": 2891,
      "السَّيِّدُ": 2892,
      "رُّو": 2893,
      "أَرَ": 2894,
      "مُشْتَ": 2895,
      "رِبِ": 2896,
      "وَائِ": 2897,
      "شَرْحِهِ": 2898,
      "أَرْضِ": 2899,
      "لْزَمُ": 2900,
      "عِلْمِهِ": 2901,
      "اسْتِحْقَا": 2902,
      "نِسْ": 2903,
      "ثَمَنِ": 2904,
      "قَدْرَ": 2905,
      "وَأَحْ": 2906,
      "وَأَبُو": 2907,
      "الْعِبَا": 2908,
      "بَيِّنَةٍ": 2909,
      "الْحَمْلِ": 2910,
      "بَرْ": 2911,
      "مُومِ": 2912,
      "عُوا": 2913,
      "تَبَيَّنَ": 2914,
      "طَلَبَ": 2915,
      "جَمِيعًا": 2916,
      "بِيَمِي": 2917,
      "أَقْرَبُ": 2918,
      "الصَّحِيحِ": 2919,
      "حَنِثَ": 2920,
      "كُلِّهِ": 2921,
      "الِاعْتِ": 2922,
      "الذِّمَّةِ": 2923,
      "مَمْلُو": 2924,
      "يَصِيرُ": 2925,
      "بَطْ": 2926,
      "مْت": 2927,
      "وَاسْ": 2928,
      "يُقْتَ": 2929,
      "خَلَّ": 2930,
      "حِقَّ": 2931,
      "زَأَ": 2932,
      "صَارِ": 2933,
      "الرَّمْ": 2934,
      "نِهَايَةٌ": 2935,
      "خٍ": 2936,
      "لِرَجُلٍ": 2937,
      "بِعَدَمِ": 2938,
      "نَذْ": 2939,
      "سَبِي": 2940,
      "وَالْعَ": 2941,
      "التَّأْ": 2942,
      "سَافِ": 2943,
      "الرَّدِّ": 2944,
      "حَجّ": 2945,
      "الزَّرْكَشِي": 2946,
      "مَدْ": 2947,
      "فَرِّ": 2948,
      "مَاءُ": 2949,
      "رِبُ": 2950,
      "الْمُعَيَّ": 2951,
      "صْبُ": 2952,
      "شُعْبَةُ": 2953,
      "ثُو": 2954,
      "وَهَذِهِ": 2955,
      "وَتَقَدَّمَ": 2956,
      "فَةٍ": 2957,
      "وَابْنِ": 2958,
      "فِعُ": 2959,
      "ضَرْ": 2960,
      "بَيَانِ": 2961,
      "يُونُسَ": 2962,
      "فُّ": 2963,
      "سَحْ": 2964,
      "رُكْ": 2965,
      "الْمُقِ": 2966,
      "الْمُدَّعَى": 2967,
      "الْأَكْ": 2968,
      "الْحَوْ": 2969,
      "شَرْعًا": 2970,
      "ؤْخَذُ": 2971,
      "فَتَأَمَّلْ": 2972,
      "الْعُمْ": 2973,
      "ثْبُتُ": 2974,
      "خَّرَ": 2975,
      "مُقَدَّ": 2976,
      "يَعْلَمُ": 2977,
      "بْرَاهِيمَ": 2978,
      "لَنَا": 2979,
      "نَظِي": 2980,
      "رْمِ": 2981,
      "وَيَجِبُ": 2982,
      "الشَّارِحُ": 2983,
      "يَةً": 2984,
      "لْحِ": 2985,
      "تُهُمْ": 2986,
      "أَنَّهُمْ": 2987,
      "قِهَا": 2988,
      "الْحَدَ": 2989,
      "الْحَقِّ": 2990,
      "الصَّدَ": 2991,
      "يَعْرِ": 2992,
      "مَحَلُّ": 2993,
      "إيَّا": 2994,
      "الْكَا": 2995,
      "الْقَوْلُ": 2996,
      "بَعُ": 2997,
      "لَالِ": 2998,
      "كُفْ": 2999,
      "طَهَا": 3000,
      "وَالْحَ": 3001,
      "الْإِجَارَةِ": 3002,
      "الْجَمَا": 3003,
      "الْبَيْعَ": 3004,
      "نَذَرَ": 3005,
      "ثَّ": 3006,
      "وَةَ": 3007,
      "الْتِ": 3008,
      "دَابَّ": 3009,
      "الْمَالِكِ": 3010,
      "كَوْنُهُ": 3011,
      "صَلَاةِ": 3012,
      "امْرَأَةً": 3013,
      "يَعْتِقُ": 3014,
      "مِهَا": 3015,
      "وَاقِ": 3016,
      "ذَهَ": 3017,
      "تْلَا": 3018,
      "فَاتِ": 3019,
      "جَابِ": 3020,
      "غَةِ": 3021,
      "شَارِ": 3022,
      "فَأَجَابَ": 3023,
      "إحْرَا": 3024,
      "يَحْتَمِلُ": 3025,
      "وَدُ": 3026,
      "وَصْ": 3027,
      "الْأَوْ": 3028,
      "مَصْ": 3029,
      "بِلِ": 3030,
      "فَمَاتَ": 3031,
      "تَيَ": 3032,
      "كَمَنْ": 3033,
      "رِطَ": 3034,
      "خِدْ": 3035,
      "وَجْهَانِ": 3036,
      "مَحَلَّ": 3037,
      "بَيِّنَةٌ": 3038,
      "بَقَاءِ": 3039,
      "دَاوُد": 3040,
      "وَثُلُ": 3041,
      "بِا": 3042,
      "رِجُ": 3043,
      "يُخَا": 3044,
      "خِذَ": 3045,
      "ضْمَنُ": 3046,
      "يَحْتَاجُ": 3047,
      "نُونَ": 3048,
      "الْأَصْلَ": 3049,
      "اثْنَيْنِ": 3050,
      "لَكَانَ": 3051,
      "أَمِي": 3052,
      "مَتِهِ": 3053,
      "بَلِ": 3054,
      "عْطَا": 3055,
      "جَوْ": 3056,
      "الْأَكْثَ": 3057,
      "خِلَافَ": 3058,
      "يَمِينِهِ": 3059,
      "جِنْسِ": 3060,
      "ثنا": 3061,
      "شَّا": 3062,
      "طِّ": 3063,
      "يّ": 3064,
      "أَفَا": 3065,
      "وَهُمْ": 3066,
      "تَتْ": 3067,
      "قْدَا": 3068,
      "جَانِ": 3069,
      "ثْنَى": 3070,
      "طَلَّقَهَا": 3071,
      "بِإِذْنِ": 3072,
      "وَيْنِ": 3073,
      "مَى": 3074,
      "بِالْمَ": 3075,
      "رَرِ": 3076,
      "الصَّيْ": 3077,
      "زَائِ": 3078,
      "الْجُمْ": 3079,
      "بِيَدِ": 3080,
      "له": 3081,
      "عَجَزَ": 3082,
      "كَبِي": 3083,
      "ذَنْ": 3084,
      "لِيلِ": 3085,
      "جَاهِ": 3086,
      "الْعَدَ": 3087,
      "عِيَا": 3088,
      "لِلنَّ": 3089,
      "الْمَالَ": 3090,
      "بَائِعِ": 3091,
      "ادَّ": 3092,
      "وَسِ": 3093,
      "الْوَاحِ": 3094,
      "رَمَاءِ": 3095,
      "بَيَّنَ": 3096,
      "سَلَّ": 3097,
      "الْأَمَةِ": 3098,
      "هْرُ": 3099,
      "لِأَنَّهُمْ": 3100,
      "الْإِجَا": 3101,
      "تَقَرَّرَ": 3102,
      "يَتَأَ": 3103,
      "مَوْلَاهُ": 3104,
      "مَوْضِعٍ": 3105,
      "آخِرِ": 3106,
      "بِضَمِّ": 3107,
      "مُرَ": 3108,
      "رْفِ": 3109,
      "خُصُو": 3110,
      "إذْنِ": 3111,
      "زَوْجِهَا": 3112,
      "زَيْدٌ": 3113,
      "صِيَ": 3114,
      "مُغْنِي": 3115,
      "كَعْ": 3116,
      "عَنْهُمْ": 3117,
      "رَاتِ": 3118,
      "عَبْدَ": 3119,
      "دِينَارٍ": 3120,
      "اثْنَا": 3121,
      "وَهَبَ": 3122,
      "بِاعْتِبَارِ": 3123,
      "فَنَ": 3124,
      "حَلِّ": 3125,
      "عَنْهُمَا": 3126,
      "حِلَّ": 3127,
      "بُطْلَا": 3128,
      "الْأَبُ": 3129,
      "شَرْطِ": 3130,
      "سِينَ": 3131,
      "اخْتَا": 3132,
      "الدُّخُولِ": 3133,
      "الْإِقْرَارِ": 3134,
      "بِدَلِيلِ": 3135,
      "لَعَلَّ": 3136,
      "وَحِينَئِذٍ": 3137,
      "سَرَ": 3138,
      "صَدَا": 3139,
      "نَاسِ": 3140,
      "حِيطِ": 3141,
      "أَهْلِهِ": 3142,
      "الْمَوَّا": 3143,
      "الْجَمِي": 3144,
      "احْتِمَالِ": 3145,
      "تَنَ": 3146,
      "قَالَا": 3147,
      "الْمُوَ": 3148,
      "خِلَافِهِ": 3149,
      "الْأَوَّلَ": 3150,
      "الدَّارِ": 3151,
      "التُّ": 3152,
      "وَرْ": 3153,
      "بِالنَّ": 3154,
      "تَجْ": 3155,
      "دَتِهِ": 3156,
      "وَافَقَ": 3157,
      "قْصَا": 3158,
      "بَيْعٍ": 3159,
      "صَلَاتُهُ": 3160,
      "ُّونَ": 3161,
      "ثُلُثِ": 3162,
      "الْوَكِيلُ": 3163,
      "فَلْيُتَأَمَّلْ": 3164,
      "جَّا": 3165,
      "تَغْ": 3166,
      "رَبَ": 3167,
      "قُدِّ": 3168,
      "سِنِينَ": 3169,
      "طْلُو": 3170,
      "لِلشَّ": 3171,
      "امْتِنَا": 3172,
      "لِأَبٍ": 3173,
      "الْكِتَابِ": 3174,
      "عَّ": 3175,
      "فَةٌ": 3176,
      "وَسَوَاءٌ": 3177,
      "وَالرَّ": 3178,
      "وَمَحَلُّ": 3179,
      "ثَمَنِهِ": 3180,
      "ثِّ": 3181,
      "لِبِ": 3182,
      "زْوِي": 3183,
      "ضِيِّ": 3184,
      "الْوَكِيلِ": 3185,
      "دّ": 3186,
      "فَيْ": 3187,
      "هَكَذَا": 3188,
      "الْمُؤْ": 3189,
      "بَارِ": 3190,
      "بَيْعِهِ": 3191,
      "لِهِمْ": 3192,
      "سَاوِي": 3193,
      "النِّهَايَةِ": 3194,
      "اشْتَرَاهُ": 3195,
      "تَرْكِ": 3196,
      "سَمِعَ": 3197,
      "دٌّ": 3198,
      "بِأَمْ": 3199,
      "مَالُ": 3200,
      "طَلِّ": 3201,
      "زَةِ": 3202,
      "أَشْبَهَ": 3203,
      "ثَلَاثَةَ": 3204,
      "يُصَلِّي": 3205,
      "زِّ": 3206,
      "بِغَيْرِهِ": 3207,
      "عْهُ": 3208,
      "رَابِ": 3209,
      "سَابِ": 3210,
      "الْأُخْرَى": 3211,
      "وَمِثْلُ": 3212,
      "مَلْ": 3213,
      "قَطِ": 3214,
      "قَاطِ": 3215,
      "سَالِ": 3216,
      "لِّمُ": 3217,
      "الْحَارِثِ": 3218,
      "امْتَنَعَ": 3219,
      "لّمَ": 3220,
      "الْمُوصَى": 3221,
      "وَهْبٍ": 3222,
      "بِالسَّ": 3223,
      "لُبْ": 3224,
      "لُحُ": 3225,
      "الْمُعْ": 3226,
      "خَلِي": 3227,
      "فَيَجِبُ": 3228,
      "أَوَّلَ": 3229,
      "الزِّنَا": 3230,
      "لَفِ": 3231,
      "قَضَى": 3232,
      "يَدَهُ": 3233,
      "بَقَ": 3234,
      "لْبِ": 3235,
      "جَامِ": 3236,
      "الْإِذْ": 3237,
      "إذْنِهِ": 3238,
      "نُونٍ": 3239,
      "الصُّو": 3240,
      "لِّيَ": 3241,
      "ثَلَاثَةٍ": 3242,
      "الْآتِي": 3243,
      "قَطْعِ": 3244,
      "ثُبُوتِ": 3245,
      "أَخِي": 3246,
      "وَةُ": 3247,
      "مْسِ": 3248,
      "خُلُ": 3249,
      "عَبْدٌ": 3250,
      "يَتَعَيَّ": 3251,
      "آخَرِ": 3252,
      "عُودٍ": 3253,
      "الدِّينِ": 3254,
      "الضَّمَانِ": 3255,
      "أَمَةً": 3256,
      "صَحِيحٍ": 3257,
      "عِلْمِ": 3258,
      "يَزِيدَ": 3259,
      "الْإِحْرَامِ": 3260,
      "وٍ": 3261,
      "الْقَبْ": 3262,
      "كَتَبَ": 3263,
      "بَالِ": 3264,
      "فَانْ": 3265,
      "الْمَالُ": 3266,
      "وَرَوَى": 3267,
      "وَرَثَةِ": 3268,
      "وَنَحْوَ": 3269,
      "الرِّوَا": 3270,
      "صُّهُ": 3271,
      "بِكَسْرِ": 3272,
      "يَصِ": 3273,
      "قِصَا": 3274,
      "مَنْصُو": 3275,
      "مُوسَى": 3276,
      "يَحْلِفُ": 3277,
      "مَوْقُو": 3278,
      "تَحْرِي": 3279,
      "الْحَيْضِ": 3280,
      "الض": 3281,
      "لَتِهِ": 3282,
      "الْكَلَامِ": 3283,
      "تَسْتَ": 3284,
      "كَحَ": 3285,
      "مَنْزِ": 3286,
      "سُبْ": 3287,
      "الْإِخْ": 3288,
      "أُجْرَةِ": 3289,
      "فَرَّقَ": 3290,
      "ذَكَرْنَا": 3291,
      "صَلّى": 3292,
      "يِهِ": 3293,
      "طَعَ": 3294,
      "سِلْ": 3295,
      "سَاءِ": 3296,
      "لِلصَّ": 3297,
      "قِيَاسُ": 3298,
      "بَيِّنَةً": 3299,
      "يَزِيدُ": 3300,
      "أَتْلَفَ": 3301,
      "النَّظَرِ": 3302,
      "بَيَّنَّا": 3303,
      "اقْ": 3304,
      "لِرَبِّ": 3305,
      "سَمُ": 3306,
      "الْمُعَ": 3307,
      "الْمُعَا": 3308,
      "وَأَخَذَ": 3309,
      "التَّيَمُّ": 3310,
      "هُورِ": 3311,
      "الِاسْتِحْ": 3312,
      "قَطْعًا": 3313,
      "الْمُعْتَمَدُ": 3314,
      "الْجِنَايَةِ": 3315,
      "تَتَ": 3316,
      "مُقَا": 3317,
      "حَمَّا": 3318,
      "كُرِهَ": 3319,
      "طَوُّ": 3320,
      "رِيَّةِ": 3321,
      "قِيُّ": 3322,
      "وَسَلّمَ": 3323,
      "زَاءِ": 3324,
      "أَجْزَأَ": 3325,
      "الِاخْ": 3326,
      "يُفِيدُ": 3327,
      "وَخَ": 3328,
      "قَتَا": 3329,
      "مُضَا": 3330,
      "نِى": 3331,
      "بُهَا": 3332,
      "ضَمَا": 3333,
      "فَاسْتَ": 3334,
      "الْعَدْ": 3335,
      "طَاهِ": 3336,
      "الثَّمَنَ": 3337,
      "الْمَالِكُ": 3338,
      "يَبْطُلُ": 3339,
      "الْخُرُو": 3340,
      "فُلَانٌ": 3341,
      "الْفِطْ": 3342,
      "سَعِيدِ": 3343,
      "رَدَّهُ": 3344,
      "عِوَضٍ": 3345,
      "إطْلَا": 3346,
      "أَدَّى": 3347,
      "عَدَا": 3348,
      "قَضَاءِ": 3349,
      "مُكَاتَ": 3350,
      "قُطِ": 3351,
      "الْخَطَّا": 3352,
      "النِّصْفِ": 3353,
      "عَطْفٌ": 3354,
      "حَرَامٌ": 3355,
      "وَفَ": 3356,
      "لِلْمَ": 3357,
      "غَرِي": 3358,
      "حُكْمًا": 3359,
      "انْتَقَ": 3360,
      "تَعَذَّرَ": 3361,
      "الدَّعْ": 3362,
      "عِشْرُونَ": 3363,
      "الثَّلَاثَةِ": 3364,
      "الزَّرْكَشِيُّ": 3365,
      "إجَا": 3366,
      "وَدِ": 3367,
      "حَجَّ": 3368,
      "تُجْ": 3369,
      "جُعِ": 3370,
      "قِيقِ": 3371,
      "مَعْرُو": 3372,
      "خِيَارِ": 3373,
      "ثَوْبًا": 3374,
      "الْمَفْ": 3375,
      "حِلِّ": 3376,
      "دَايَةِ": 3377,
      "عَادَةً": 3378,
      "وَالْفَرْقُ": 3379,
      "أَطْلَقَ": 3380,
      "وَبَقِيَ": 3381,
      "الْهَدْ": 3382,
      "لِكِ": 3383,
      "يَرُدُّ": 3384,
      "مْنَا": 3385,
      "رَافِ": 3386,
      "الْجَوْ": 3387,
      "وَقَضِي": 3388,
      "الْبَيْتِ": 3389,
      "ثَانِي": 3390,
      "بِإِقْرَا": 3391,
      "ثِينَ": 3392,
      "الْمَنْفَعَةِ": 3393,
      "بِنْتُ": 3394,
      "نَصِيبِهِ": 3395,
      "قَتَلَهُ": 3396,
      "الْأَجَلِ": 3397,
      "حَبِيبٍ": 3398,
      "وَعِبَارَةُ": 3399,
      "رَمُ": 3400,
      "يَرُدَّ": 3401,
      "جَزَمَ": 3402,
      "بِيعَ": 3403,
      "بِأَلْفٍ": 3404,
      "وَنَحْوِهَا": 3405,
      "الصِّحَّةِ": 3406,
      "هُّ": 3407,
      "فَلِلْ": 3408,
      "سَفَ": 3409,
      "الْمَكْ": 3410,
      "وَالدَّ": 3411,
      "قَبْلَهَا": 3412,
      "وَقَعَتْ": 3413,
      "الْفَرْضِ": 3414,
      "لَفْظ": 3415,
      "فَوْقَ": 3416,
      "اخْتَلَ": 3417,
      "وَالسَّلَامُ": 3418,
      "الْمُتَقَدِّ": 3419,
      "سُقُو": 3420,
      "وَيُحْتَمَلُ": 3421,
      "الْعَاقِ": 3422,
      "دِرْهَمًا": 3423,
      "وَجَبَتْ": 3424,
      "مَرْأَ": 3425,
      "حَدَثَ": 3426,
      "الْمُكَاتَبِ": 3427,
      "غَالِبًا": 3428,
      "عُثْمَانَ": 3429,
      "شِيَ": 3430,
      "هُنَّ": 3431,
      "مَضَى": 3432,
      "حَاضِ": 3433,
      "رِهِمْ": 3434,
      "شَرْطٌ": 3435,
      "زِيَادَةِ": 3436,
      "رَكْعَتَيْنِ": 3437,
      "فَقَوْلُهُ": 3438,
      "تَشْ": 3439,
      "هَمُ": 3440,
      "جَالِ": 3441,
      "مِيُّ": 3442,
      "وَيَسْتَ": 3443,
      "الْقَضَا": 3444,
      "وَجَزَمَ": 3445,
      "حَقَّهُ": 3446,
      "جًا": 3447,
      "الْحُكْمَ": 3448,
      "بِعِ": 3449,
      "كَأَنَّهُ": 3450,
      "هَارِ": 3451,
      "يَقْدِ": 3452,
      "الِاحْ": 3453,
      "الْآنَ": 3454,
      "الظَّاهِ": 3455,
      "الْغَاصِبِ": 3456,
      "الْمُرْتَهِنِ": 3457,
      "الْمَجْمُوعِ": 3458,
      "الْبَلَدِ": 3459,
      "بِعُ": 3460,
      "مْتَنِ": 3461,
      "دُهَا": 3462,
      "هْرَ": 3463,
      "سِتَّةِ": 3464,
      "الْمَدِينَةِ": 3465,
      "إمْ": 3466,
      "رَدِّ": 3467,
      "نَهْ": 3468,
      "رِجَ": 3469,
      "الْمُسَمَّى": 3470,
      "ذْفِ": 3471,
      "التَّمْ": 3472,
      "دَيْنِهِ": 3473,
      "الْهِدَايَةِ": 3474,
      "الْمَسْأَلَةُ": 3475,
      "الصَّوْمِ": 3476,
      "الْوُضُوءِ": 3477,
      "الْفَتْحِ": 3478,
      "وَعُ": 3479,
      "الْوَلَا": 3480,
      "لِحَدِيثِ": 3481,
      "أَنْكَرَ": 3482,
      "تُكَ": 3483,
      "شَأْ": 3484,
      "الْحَرَمِ": 3485,
      "وَالظَّاهِرُ": 3486,
      "ضَامِ": 3487,
      "الْبُلْقِي": 3488,
      "تَفْسِي": 3489,
      "الثَّوْبِ": 3490,
      "بَعْضِهِمْ": 3491,
      "الشَّهَادَةِ": 3492,
      "لَمَا": 3493,
      "حَرُمَ": 3494,
      "بْرِ": 3495,
      "يُوَ": 3496,
      "عَانِ": 3497,
      "دِيِّ": 3498,
      "وَيَبْ": 3499,
      "جِيبَ": 3500,
      "صَلَاةٍ": 3501,
      "كُلَّهُ": 3502,
      "دَعْوَاهُ": 3503,
      "نَفْسِهَا": 3504,
      "وَلْ": 3505,
      "الْمِي": 3506,
      "بِئْ": 3507,
      "جْمَاعِ": 3508,
      "التَّعَ": 3509,
      "جُودِ": 3510,
      "يَنْفَ": 3511,
      "جَمِيعَ": 3512,
      "عَقْدِ": 3513,
      "حَقُّهُ": 3514,
      "وَطْءِ": 3515,
      "ابْتِدَاءً": 3516,
      "نَجِ": 3517,
      "فْظُ": 3518,
      "حَالٍ": 3519,
      "الْعَوْ": 3520,
      "نَفْسَ": 3521,
      "اسْتَوْ": 3522,
      "قَّفُ": 3523,
      "الْحَرْ": 3524,
      "دِيٌّ": 3525,
      "فَالْقَوْلُ": 3526,
      "أَقَلُّ": 3527,
      "مُسْلِمًا": 3528,
      "مِثْلِهَا": 3529,
      "تَصَوَّ": 3530,
      "الْوَصِيَّةُ": 3531,
      "الْغَائِ": 3532,
      "تَسْلِي": 3533,
      "أَعْتَقَهُ": 3534,
      "ءُو": 3535,
      "طُّ": 3536,
      "بِكُلِّ": 3537,
      "بِخِلَافِهِ": 3538,
      "عْلَمْ": 3539,
      "الْمَدْ": 3540,
      "الرَّأْ": 3541,
      "النِّيَّةِ": 3542,
      "عَدَمِهِ": 3543,
      "أَجْنَبِيٍّ": 3544,
      "خُرُوجِ": 3545,
      "شَخْصٍ": 3546,
      "حَةٌ": 3547,
      "شْكِ": 3548,
      "ضَعْ": 3549,
      "فَاقِ": 3550,
      "إنْسَا": 3551,
      "الْفَصْ": 3552,
      "الَّذِينَ": 3553,
      "الْفُرُوعِ": 3554,
      "سُفْيَانَ": 3555,
      "الْأَصْحَابِ": 3556,
      "لْزِ": 3557,
      "كَانَا": 3558,
      "قِرَاءَ": 3559,
      "وَيُسْتَ": 3560,
      "طُهُ": 3561,
      "غَاصِ": 3562,
      "عْتِقُ": 3563,
      "الْحُرِّ": 3564,
      "كَلَامِهِمْ": 3565,
      "تَصْحِي": 3566,
      "الْمُوَكِّلِ": 3567,
      "خٌ": 3568,
      "أَمَا": 3569,
      "الْبِنَاءِ": 3570,
      "حَدِّ": 3571,
      "سْرِ": 3572,
      "الدَّمِ": 3573,
      "الدِّيَ": 3574,
      "تَفْرِي": 3575,
      "يَثْبُتْ": 3576,
      "الْمَأْمُو": 3577,
      "رَضِىَ": 3578,
      "خَيَّرُ": 3579,
      "إسْلَا": 3580,
      "لًّا": 3581,
      "فَضَ": 3582,
      "قَرَا": 3583,
      "كَقَوْلِهِ": 3584,
      "اسْتِعْ": 3585,
      "مُعَاوِيَ": 3586,
      "أَوْجَهُ": 3587,
      "اخْتَلَفَ": 3588,
      "بِإِذْنِهِ": 3589,
      "الْخِيَارُ": 3590,
      "وَعِشْرِينَ": 3591,
      "الْفَاسِ": 3592,
      "حَلَ": 3593,
      "قَوْله": 3594,
      "قْدِي": 3595,
      "فِعَ": 3596,
      "شَى": 3597,
      "شَقَّ": 3598,
      "سِمُ": 3599,
      "جَابُ": 3600,
      "فَيَجُوزُ": 3601,
      "دِهِمْ": 3602,
      "الِانْ": 3603,
      "جَّهُ": 3604,
      "بَعْضُهُ": 3605,
      "يَبْلُ": 3606,
      "ؤُلَاءِ": 3607,
      "مَجْهُو": 3608,
      "تَأْخِي": 3609,
      "نِكَاحٍ": 3610,
      "الشِّرَاءِ": 3611,
      "مُؤَجَّ": 3612,
      "وَجْهَيْنِ": 3613,
      "اثْنَانِ": 3614,
      "الْيَوْمَ": 3615,
      "الْوُقُو": 3616,
      "مَكَا": 3617,
      "تَطْلُ": 3618,
      "مِصْ": 3619,
      "نَجَاسَ": 3620,
      "بَرَهُ": 3621,
      "بَتُهُ": 3622,
      "بْهَةِ": 3623,
      "رُؤْ": 3624,
      "بَاعِ": 3625,
      "عَارِ": 3626,
      "وَيُكْرَهُ": 3627,
      "مِلْكُهُ": 3628,
      "أَخْذًا": 3629,
      "شِئْ": 3630,
      "وُجُوبُ": 3631,
      "بِعَيْ": 3632,
      "الشَّاهِ": 3633,
      "صَارَتْ": 3634,
      "عِتْقِهِ": 3635,
      "ثَوْبٍ": 3636,
      "الْهِبَةِ": 3637,
      "عَقِبَ": 3638,
      "الْبَيِّنَةَ": 3639,
      "ضَعِيفٌ": 3640,
      "فَكَيْفَ": 3641,
      "رْحِ": 3642,
      "نَانِي": 3643,
      "قِلُ": 3644,
      "التَّمَ": 3645,
      "وَيُسَ": 3646,
      "زْرَ": 3647,
      "قِيمَتَهُ": 3648,
      "الصَّا": 3649,
      "فَسَخَ": 3650,
      "أُجْرَةُ": 3651,
      "فَعَلَهُ": 3652,
      "تَبْطُلُ": 3653,
      "عَطَا": 3654,
      "فَفِيهِ": 3655,
      "يُرَدُّ": 3656,
      "كْرَ": 3657,
      "الْوَدِي": 3658,
      "خَمْسِينَ": 3659,
      "خَرَجَتْ": 3660,
      "يَصْلُحُ": 3661,
      "بِاَ": 3662,
      "صِهِ": 3663,
      "اللَّا": 3664,
      "اللِّ": 3665,
      "مُعَ": 3666,
      "نِصَا": 3667,
      "خَصْ": 3668,
      "الْمَرِي": 3669,
      "عَاهُ": 3670,
      "دَانِ": 3671,
      "يَاءِ": 3672,
      "فَأَكْثَ": 3673,
      "غَابَ": 3674,
      "عَيْبٍ": 3675,
      "جُزْءٍ": 3676,
      "أَوْلَادِ": 3677,
      "حُرْمَةِ": 3678,
      "الْخِيَارِ": 3679,
      "الدَّيْنُ": 3680,
      "الْخَطَّابِ": 3681,
      "احْتَ": 3682,
      "فَذَ": 3683,
      "دَّةَ": 3684,
      "لِلْبَائِعِ": 3685,
      "ضْحِي": 3686,
      "وَيُمْ": 3687,
      "الْفَضْ": 3688,
      "خَمْسَةٌ": 3689,
      "لِلزَّوْجِ": 3690,
      "لَسَ": 3691,
      "أَكَلَ": 3692,
      "مَهَا": 3693,
      "صَرْ": 3694,
      "تِمَّ": 3695,
      "الْمَبْ": 3696,
      "جِبْ": 3697,
      "قُدْ": 3698,
      "طَأَ": 3699,
      "حُضُو": 3700,
      "لِأَنَّهُمَا": 3701,
      "صِيلِ": 3702,
      "بَّمَا": 3703,
      "صَحَّتْ": 3704,
      "عَشْرَةَ": 3705,
      "يَرْجِعَ": 3706,
      "قَادِ": 3707,
      "فِقُ": 3708,
      "فُذُ": 3709,
      "بَلَدٍ": 3710,
      "الشَّيْءِ": 3711,
      "يُصَدَّ": 3712,
      "الْجَوَابُ": 3713,
      "الْقِسْمَةِ": 3714,
      "الْإِسْنَ": 3715,
      "بِيَمِينِهِ": 3716,
      "سِيَ": 3717,
      "وَمَعَ": 3718,
      "كَلْ": 3719,
      "قَاعِ": 3720,
      "أَحَقُّ": 3721,
      "مَوْجُو": 3722,
      "مُسْتَحِ": 3723,
      "عُودُ": 3724,
      "زَوْجٍ": 3725,
      "سُبْحَا": 3726,
      "مِّيَ": 3727,
      "لِبَ": 3728,
      "بِقَوْلِ": 3729,
      "نَصْ": 3730,
      "وَابِ": 3731,
      "وَاعْتَ": 3732,
      "رَاضِ": 3733,
      "حَالُ": 3734,
      "ذْرُ": 3735,
      "فَيَأْ": 3736,
      "خَاصَّ": 3737,
      "مَسْعُودٍ": 3738,
      "ظَاهِرِ": 3739,
      "دَيْنًا": 3740,
      "يَمِينٍ": 3741,
      "مَحْجُو": 3742,
      "افْ": 3743,
      "لِتَعَ": 3744,
      "قَبَةِ": 3745,
      "قَدَّمَ": 3746,
      "عْت": 3747,
      "تِصَا": 3748,
      "أَنْفَقَ": 3749,
      "فِطْ": 3750,
      "زَوَالِ": 3751,
      "خِنَا": 3752,
      "وَيَسْ": 3753,
      "مَعْرِفَ": 3754,
      "رَأْسِهِ": 3755,
      "رَأَيْت": 3756,
      "الطَّا": 3757,
      "الشَّافِعِيُّ": 3758,
      "وَأَرْبَ": 3759,
      "أَنَسٍ": 3760,
      "حَيًّا": 3761,
      "لِاحْتِمَالِ": 3762,
      "هِلَ": 3763,
      "بِنَحْوِ": 3764,
      "فَقُلْتُ": 3765,
      "رَشِي": 3766,
      "نَفِي": 3767,
      "نَيْنِ": 3768,
      "مُرْتَ": 3769,
      "رُجُ": 3770,
      "زَرْ": 3771,
      "زِلُ": 3772,
      "الِابْنِ": 3773,
      "الْوَارِثِ": 3774,
      "وَنَقَلَ": 3775,
      "حِصَّتِهِ": 3776,
      "الْمَغْصُو": 3777,
      "فَيَنْبَغِي": 3778,
      "إلْ": 3779,
      "شُّ": 3780,
      "عَمَّ": 3781,
      "تَمَامِ": 3782,
      "يَسِي": 3783,
      "يَرِثُ": 3784,
      "مَاءٍ": 3785,
      "هَؤُلَاءِ": 3786,
      "جَهَا": 3787,
      "الْأَخِي": 3788,
      "كْرَا": 3789,
      "الْوَكَا": 3790,
      "يَبْقَ": 3791,
      "الْبُخَا": 3792,
      "الظَّاهِرُ": 3793,
      "بَاطِلٌ": 3794,
      "اخْتِلَافِ": 3795,
      "ضَيْ": 3796,
      "لِفِ": 3797,
      "يَلْحَ": 3798,
      "لَاةِ": 3799,
      "وَيَصِحُّ": 3800,
      "الْوَلِي": 3801,
      "فَإِنَّمَا": 3802,
      "وَيُؤَ": 3803,
      "مُوسِ": 3804,
      "الْقِبْ": 3805,
      "فَرَّقُ": 3806,
      "ثْنَاءِ": 3807,
      "أَدْرَكَ": 3808,
      "وَاجِبٌ": 3809,
      "طَلَاقٍ": 3810,
      "شُبْهَةٍ": 3811,
      "اسْتَأْجَرَ": 3812,
      "خَطَأً": 3813,
      "نَصًّا": 3814,
      "لِدَ": 3815,
      "يَسَا": 3816,
      "نَدْ": 3817,
      "مُرْ": 3818,
      "مُتَوَ": 3819,
      "جَدَ": 3820,
      "ذَيْنِ": 3821,
      "صَةِ": 3822,
      "الْمُحْرِ": 3823,
      "الْأَفْ": 3824,
      "شَرْحُ": 3825,
      "ثُلُثُ": 3826,
      "يُقْطَعُ": 3827,
      "حُرًّا": 3828,
      "يَجِبْ": 3829,
      "يٌ": 3830,
      "لَبَ": 3831,
      "الْفِعْلِ": 3832,
      "حَكَمَ": 3833,
      "نَاتِ": 3834,
      "الْوَلِيُّ": 3835,
      "خَالَ": 3836,
      "الْمَوْقُو": 3837,
      "زَيْدِ": 3838,
      "الْقَتْلِ": 3839,
      "إحْدَاهُمَا": 3840,
      "وَبَعْدَ": 3841,
      "عَقِي": 3842,
      "قْتُ": 3843,
      "تِمُّ": 3844,
      "جِلْ": 3845,
      "وَأَفْ": 3846,
      "دَائِ": 3847,
      "دَاءَ": 3848,
      "ظَرُ": 3849,
      "وَرَوَاهُ": 3850,
      "تَوَضَّ": 3851,
      "عَيْنٍ": 3852,
      "الْبُلْقِينِيُّ": 3853,
      "التَّا": 3854,
      "وَغَ": 3855,
      "وَدِي": 3856,
      "مُسَ": 3857,
      "لَانٍ": 3858,
      "لْعِ": 3859,
      "وَرَدَ": 3860,
      "أَلْفٌ": 3861,
      "النَّاسُ": 3862,
      "جَمْعُ": 3863,
      "حَقِيقَةً": 3864,
      "قَتَادَةَ": 3865,
      "سَّا": 3866,
      "الدِّ": 3867,
      "مَرِي": 3868,
      "فَأُ": 3869,
      "قَدِمَ": 3870,
      "كَإِ": 3871,
      "حَمَلَ": 3872,
      "وَامْ": 3873,
      "أُمٍّ": 3874,
      "يُوَا": 3875,
      "بَّهَ": 3876,
      "بِمَالٍ": 3877,
      "فَرْضِ": 3878,
      "قَتْلِهِ": 3879,
      "للَّهِ": 3880,
      "أَخْرَجَهُ": 3881,
      "مَكْرُو": 3882,
      "إثْبَا": 3883,
      "أَيُّ": 3884,
      "وَغَيْرِهَا": 3885,
      "مَغْ": 3886,
      "تَمَا": 3887,
      "مُخَالِ": 3888,
      "قْرِ": 3889,
      "قْدِ": 3890,
      "تُسْ": 3891,
      "فِضَّ": 3892,
      "دْت": 3893,
      "قُرَيْ": 3894,
      "اللَّخْ": 3895,
      "قَدْرُ": 3896,
      "التَّنْ": 3897,
      "دَارٍ": 3898,
      "مِيرُ": 3899,
      "الْبَابِ": 3900,
      "الْعَقْدَ": 3901,
      "لِفُلَانٍ": 3902,
      "نَقَلَ": 3903,
      "شَهَادَةِ": 3904,
      "الثُّلُثُ": 3905,
      "الطُّ": 3906,
      "بِدَيْنٍ": 3907,
      "فَجَ": 3908,
      "فَرَا": 3909,
      "فَيْنِ": 3910,
      "يَتَقَ": 3911,
      "نَتْ": 3912,
      "مُدَبَّ": 3913,
      "حَةُ": 3914,
      "تِدَاءِ": 3915,
      "صْحَ": 3916,
      "فَاتَ": 3917,
      "وَسَيَأْتِي": 3918,
      "السَّلَامِ": 3919,
      "شَرْعِي": 3920,
      "وَقَدَّ": 3921,
      "صُدِّ": 3922,
      "الرَّافِ": 3923,
      "تُوُ": 3924,
      "ضَرَبَ": 3925,
      "فَكَأَنَّهُ": 3926,
      "تَصَدَّقَ": 3927,
      "مَاءَ": 3928,
      "قَامَةِ": 3929,
      "رَاكِ": 3930,
      "شَجَ": 3931,
      "نِيَّ": 3932,
      "صَادِ": 3933,
      "حَقًّا": 3934,
      "فَأَخْ": 3935,
      "إلَيْهِمْ": 3936,
      "الْمَاوَرْ": 3937,
      "مُسْتَوْ": 3938,
      "السُّلْطَا": 3939,
      "يِينِ": 3940,
      "بَرِئَ": 3941,
      "الشَّافِعِيِّ": 3942,
      "نَزَلَ": 3943,
      "وَطِئَهَا": 3944,
      "اتِّفَاقًا": 3945,
      "بِنِصْفِ": 3946,
      "مُنَا": 3947,
      "مَالَهُ": 3948,
      "الْمُتَّ": 3949,
      "فَاءُ": 3950,
      "قُوا": 3951,
      "طُهْ": 3952,
      "الْقَائِ": 3953,
      "الْمَاءَ": 3954,
      "كَوْنُ": 3955,
      "عَلَّقَ": 3956,
      "صَلَاتِهِ": 3957,
      "وَمُغْنِي": 3958,
      "خَمْسَةِ": 3959,
      "الْفَرْقُ": 3960,
      "الْجَانِي": 3961,
      "حَرْبِي": 3962,
      "الرُّجُوعُ": 3963,
      "التَّصَرُّفِ": 3964,
      "بَّةِ": 3965,
      "غُو": 3966,
      "أَطْ": 3967,
      "عَجْ": 3968,
      "مَقَا": 3969,
      "فَذَلِكَ": 3970,
      "نَكَلَ": 3971,
      "مَاعِي": 3972,
      "كَثُ": 3973,
      "نِعَ": 3974,
      "بُلُو": 3975,
      "قِرَّ": 3976,
      "طَةِ": 3977,
      "زَلَ": 3978,
      "جُمُ": 3979,
      "وَأَبِي": 3980,
      "اللَّهُمَّ": 3981,
      "نَفْيِ": 3982,
      "شُفْ": 3983,
      "يَضْمَنْ": 3984,
      "رًّا": 3985,
      "فِّيَ": 3986,
      "وَلِيُّ": 3987,
      "وَرُوِيَ": 3988,
      "عَرْ": 3989,
      "مَدُ": 3990,
      "مَسَا": 3991,
      "رَبَّ": 3992,
      "بَكْرِ": 3993,
      "ثَةَ": 3994,
      "الْمَلِكِ": 3995,
      "سِلُ": 3996,
      "ظَنِّ": 3997,
      "الْقَطْعِ": 3998,
      "مِلْكُ": 3999,
      "نِصْفُهُ": 4000,
      "كُلًّا": 4001,
      "الْجِنْ": 4002,
      "مَحْمُو": 4003,
      "أَحَدَهُمَا": 4004,
      "ثَابِتٍ": 4005,
      "مُقْتَضَى": 4006,
      "تَصَوَّرُ": 4007,
      "الْيَوْمِ": 4008,
      "بِالشُّ": 4009,
      "يَدَّعِي": 4010,
      "نَةٌ": 4011,
      "مُوَ": 4012,
      "مُدَّةِ": 4013,
      "لَائِ": 4014,
      "تَابَ": 4015,
      "ضْطَ": 4016,
      "يَنْظُ": 4017,
      "الْحَائِ": 4018,
      "الْكَعْ": 4019,
      "الطَّرِيقِ": 4020,
      "حْتَمِلُ": 4021,
      "صِحَّتِهِ": 4022,
      "رَاجِعٌ": 4023,
      "دُخُولِ": 4024,
      "يَحْنَثْ": 4025,
      "بْتَدَ": 4026,
      "عَهْ": 4027,
      "يَلِي": 4028,
      "حَضَرَ": 4029,
      "هَمْ": 4030,
      "الْمُحِيطِ": 4031,
      "رُورَةِ": 4032,
      "لِلرَّ": 4033,
      "الْفَجْرِ": 4034,
      "أَرْضٍ": 4035,
      "أَرْبَعَةٌ": 4036,
      "رَقَبَتِهِ": 4037,
      "أَبَدًا": 4038,
      "النَّفْسِ": 4039,
      "لِسُ": 4040,
      "مَكَانَ": 4041,
      "فَذَكَرَ": 4042,
      "رَاءُ": 4043,
      "خِلَافُهُ": 4044,
      "الصَّدَا": 4045,
      "يَأْتِيَ": 4046,
      "لِلْمُسْلِ": 4047,
      "مَلَكَهُ": 4048,
      "حَاصِلُهُ": 4049,
      "يُنَافِي": 4050,
      "يَأْكُلُ": 4051,
      "أَي": 4052,
      "لِقَوْلِ": 4053,
      "مَهْرِ": 4054,
      "بِهُ": 4055,
      "بِبَيِّنَةٍ": 4056,
      "رَوْ": 4057,
      "نَيْ": 4058,
      "رُبْ": 4059,
      "ذَبْ": 4060,
      "ضَرَّ": 4061,
      "كِفَا": 4062,
      "سِوَى": 4063,
      "قُودِ": 4064,
      "الرَّجْ": 4065,
      "تَعَيَّ": 4066,
      "تَعَلَّقَ": 4067,
      "الْحُرْ": 4068,
      "الْمُدَبَّ": 4069,
      "جَمَاعَةٌ": 4070,
      "الزَّوْجَةِ": 4071,
      "رْمِذِي": 4072,
      "أَنّ": 4073,
      "وَلاَ": 4074,
      "الْخَيْ": 4075,
      "الْوِلَا": 4076,
      "نْبَ": 4077,
      "فَقِيلَ": 4078,
      "قَصَ": 4079,
      "يُزَوِّ": 4080,
      "عُضْ": 4081,
      "حِنْطَ": 4082,
      "وَتَرَكَ": 4083,
      "يَمْتَنِ": 4084,
      "رَأْسَهُ": 4085,
      "سُفْيَانُ": 4086,
      "الْأَجْنَبِيِّ": 4087,
      "يَتَعَيَّنُ": 4088,
      "وَطَ": 4089,
      "عَصَ": 4090,
      "عَمِلَ": 4091,
      "تَطْ": 4092,
      "قَرَاءِ": 4093,
      "بْكِي": 4094,
      "حِرْ": 4095,
      "حُدُو": 4096,
      "حَالِهِ": 4097,
      "النَّوْ": 4098,
      "الْكَفَا": 4099,
      "الْمَوْهُو": 4100,
      "يَقْبِ": 4101,
      "رِوَايَةٍ": 4102,
      "الذِّمِّي": 4103,
      "إخْرَا": 4104,
      "وَرَثَتِهِ": 4105,
      "الْوُجُوبِ": 4106,
      "لِاسْتِ": 4107,
      "فَهَا": 4108,
      "كَمِ": 4109,
      "عِمَا": 4110,
      "ذَكَّ": 4111,
      "عَبْدَهُ": 4112,
      "لِلضَّ": 4113,
      "خَمْسِ": 4114,
      "فِعْلُ": 4115,
      "عَيَّنَ": 4116,
      "امْرَأَةٌ": 4117,
      "فُوا": 4118,
      "قَدَرَ": 4119,
      "بَيِّنَةِ": 4120,
      "آدَمِي": 4121,
      "مَسْجِدٍ": 4122,
      "مُسْ": 4123,
      "لْبَ": 4124,
      "إِبْرَاهِيمَ": 4125,
      "الْمَصْ": 4126,
      "صْرِي": 4127,
      "وَأَرَادَ": 4128,
      "يَقْتُ": 4129,
      "الْمُسْتَوْ": 4130,
      "الْمَذْهَبُ": 4131,
      "أَفْتَى": 4132,
      "الْقُدْ": 4133,
      "جَوَابُ": 4134,
      "الْمَعْرُو": 4135,
      "أَمَةٍ": 4136,
      "نَظَرَ": 4137,
      "عُرْفًا": 4138,
      "الْقُرْآنِ": 4139,
      "السَّابِقِ": 4140,
      "يٍ": 4141,
      "أَلَهُ": 4142,
      "لِأَحَدِهِمَا": 4143,
      "مُجَرَّ": 4144,
      "لَاحِ": 4145,
      "وَابُ": 4146,
      "ضَعُ": 4147,
      "وَالْجَ": 4148,
      "فَانِ": 4149,
      "غَيُّ": 4150,
      "يِّدِ": 4151,
      "عِنْدَهُمَا": 4152,
      "يَلْزَمْهُ": 4153,
      "أَرْبَعَةِ": 4154,
      "الْأَصَحُّ": 4155,
      "عَقِدُ": 4156,
      "الْمُعْتَمَدِ": 4157,
      "حَةَ": 4158,
      "حَيَوَا": 4159,
      "دَمِ": 4160,
      "تُعْ": 4161,
      "فِيهِمْ": 4162,
      "مَعَهُمْ": 4163,
      "الْوَلِيِّ": 4164,
      "النَّسَبِ": 4165,
      "خَافَ": 4166,
      "لُوهُ": 4167,
      "الْقَطْ": 4168,
      "وُجُوبًا": 4169,
      "الْكَرَا": 4170,
      "السُّدُ": 4171,
      "رَأَيْتُ": 4172,
      "التَّعْلِي": 4173,
      "مُتَّفَ": 4174,
      "جْتَهِ": 4175,
      "وَنَحْوُهُ": 4176,
      "الدَّعْوَى": 4177,
      "لَكُمْ": 4178,
      "مُصَ": 4179,
      "حَةٍ": 4180,
      "رِفَةِ": 4181,
      "سَحَ": 4182,
      "سْمِ": 4183,
      "يُضَ": 4184,
      "شْتُ": 4185,
      "حَادِ": 4186,
      "وَأَنَا": 4187,
      "الْحَدُّ": 4188,
      "دَارَ": 4189,
      "وَلَدٌ": 4190,
      "وَيَقْ": 4191,
      "فَيَبْ": 4192,
      "الصَّلَاةَ": 4193,
      "مُنْتَ": 4194,
      "مَأْمُو": 4195,
      "الْمَشْهُورِ": 4196,
      "حِيَ": 4197,
      "وَظَاهِرُهُ": 4198,
      "لِعُ": 4199,
      "بِالثَّمَنِ": 4200,
      "مِثَا": 4201,
      "نَانِ": 4202,
      "كُرْ": 4203,
      "زَمَنِ": 4204,
      "وَالْحَاصِلُ": 4205,
      "دَامَ": 4206,
      "وَلَمَّا": 4207,
      "أَحَدًا": 4208,
      "يَتَحَقَّ": 4209,
      "مَعْنًى": 4210,
      "الْعِوَ": 4211,
      "اسْتَحَقَّ": 4212,
      "وَلِذَلِكَ": 4213,
      "أَكْثَرِ": 4214,
      "مَحْرَ": 4215,
      "الطَّلَاقُ": 4216,
      "يُسْتَحَبُّ": 4217,
      "أَصَابَ": 4218,
      "الْمِلْكَ": 4219,
      "سُلَيْمَانَ": 4220,
      "كَسَ": 4221,
      "وَانِ": 4222,
      "رُكُو": 4223,
      "ذَاكَ": 4224,
      "قِلَ": 4225,
      "وَالْبَ": 4226,
      "دَاخِ": 4227,
      "فَأَخَذَ": 4228,
      "الْقَبُو": 4229,
      "حَيْضَ": 4230,
      "مَرَضٍ": 4231,
      "غُسْ": 4232,
      "بِإِسْ": 4233,
      "أَمَرَهُ": 4234,
      "صَالِحٍ": 4235,
      "جُعِلَ": 4236,
      "بِاَللَّهِ": 4237,
      "خَاصَّةً": 4238,
      "إعَا": 4239,
      "ارْ": 4240,
      "دِيَةِ": 4241,
      "دِّيَ": 4242,
      "وَكَانَتْ": 4243,
      "الْأَيْ": 4244,
      "مَلَهُ": 4245,
      "بَلَةِ": 4246,
      "سَرَقَ": 4247,
      "جَرِ": 4248,
      "حُصُولِ": 4249,
      "كِنَا": 4250,
      "ئِمَّةِ": 4251,
      "الْعَمَلُ": 4252,
      "تَالِ": 4253,
      "الصَّحَا": 4254,
      "نُونِ": 4255,
      "دِرْهَمٌ": 4256,
      "يُجْبَرُ": 4257,
      "مَسْأَلَةُ": 4258,
      "إحْدَى": 4259,
      "الدَّارَ": 4260,
      "فَلِهَذَا": 4261,
      "نَافِعٍ": 4262,
      "عُمْرَةٍ": 4263,
      "قَبُولِ": 4264,
      "الْحَدَثِ": 4265,
      "الْمُؤْمِ": 4266,
      "عَتِهِ": 4267,
      "هِمَا": 4268,
      "تَجُوزُ": 4269,
      "مْسُ": 4270,
      "سَنُ": 4271,
      "سَخُ": 4272,
      "كْفِي": 4273,
      "بَابُ": 4274,
      "غَصَبَ": 4275,
      "الْقَصْ": 4276,
      "الدَّرَاهِ": 4277,
      "سِيِّ": 4278,
      "أَقْوَى": 4279,
      "جَوَازُ": 4280,
      "سَائِلِ": 4281,
      "نِكَاحُ": 4282,
      "مَفْعُو": 4283,
      "الْعُمْرَةِ": 4284,
      "إيَّاهُ": 4285,
      "لَبِ": 4286,
      "وَهُمَا": 4287,
      "بِلَفْظِ": 4288,
      "فَمِنْ": 4289,
      "فَقِي": 4290,
      "رَعَ": 4291,
      "مَالِي": 4292,
      "وَاخْتَا": 4293,
      "خْتُ": 4294,
      "أَنَّهُمَا": 4295,
      "قُهَا": 4296,
      "صِيَا": 4297,
      "الْمَوْضِ": 4298,
      "اُعْتُ": 4299,
      "بِتَرْ": 4300,
      "قِيَامِ": 4301,
      "الْمَنْعِ": 4302,
      "نَصِيبِ": 4303,
      "يُسَمَّى": 4304,
      "الْفَسْخِ": 4305,
      "الصَّغِيرِ": 4306,
      "مٌّ": 4307,
      "وَخُ": 4308,
      "بِكَذَا": 4309,
      "سَيْنِ": 4310,
      "دَّهُ": 4311,
      "بَيْرِ": 4312,
      "سَادِ": 4313,
      "عِيرِ": 4314,
      "دُوِّ": 4315,
      "السَّلَامُ": 4316,
      "وَتَعَ": 4317,
      "الْكَفِي": 4318,
      "الشَّرْعِ": 4319,
      "فُلَانًا": 4320,
      "كَثِيرًا": 4321,
      "عَلِمْت": 4322,
      "الرَّاهِنِ": 4323,
      "رٌّ": 4324,
      "فَجَاءَ": 4325,
      "حَةً": 4326,
      "بْسِ": 4327,
      "يُنَ": 4328,
      "الْمُتَعَ": 4329,
      "سِخَ": 4330,
      "لِلْأَبِ": 4331,
      "وَيُقَالُ": 4332,
      "الشَّعْ": 4333,
      "الْحَافِ": 4334,
      "هُودِ": 4335,
      "الْمَاءُ": 4336,
      "طَلَبِ": 4337,
      "وَاضِحٌ": 4338,
      "مَضْمُو": 4339,
      "تّ": 4340,
      "حَّ": 4341,
      "كِّي": 4342,
      "لِآخَرَ": 4343,
      "لِوُجُودِ": 4344,
      "وْا": 4345,
      "رَجَّ": 4346,
      "يَظْهَ": 4347,
      "يَطْلُ": 4348,
      "كَلُ": 4349,
      "الْمَهْرِ": 4350,
      "جِهُ": 4351,
      "بَعْدَمَا": 4352,
      "وَاللَّ": 4353,
      "اسْمُ": 4354,
      "السَّلَمِ": 4355,
      "أَهْلَ": 4356,
      "كَافِرٍ": 4357,
      "كَثِيرٍ": 4358,
      "مَمْنُو": 4359,
      "حَسَنٌ": 4360,
      "وَقَبْلَ": 4361,
      "مَسَّ": 4362,
      "عَاصِ": 4363,
      "صِلُ": 4364,
      "وَأَعْ": 4365,
      "وَيُجْ": 4366,
      "أَشْهَبُ": 4367,
      "وَقْتٍ": 4368,
      "جَمِيعُ": 4369,
      "رَدُّهُ": 4370,
      "طْلَاقِ": 4371,
      "الْغُرَمَاءِ": 4372,
      "بَيَانُ": 4373,
      "مَوْضِعِ": 4374,
      "الْأَرْبَعَةِ": 4375,
      "هِشَامٍ": 4376,
      "وًا": 4377,
      "دَمَ": 4378,
      "بْرَاءِ": 4379,
      "عُقْ": 4380,
      "طَلُ": 4381,
      "خَاص": 4382,
      "دُونَهُ": 4383,
      "وَتَعْ": 4384,
      "شَرْطٍ": 4385,
      "نَحْوِهِ": 4386,
      "مِلْكٍ": 4387,
      "فَالْمُ": 4388,
      "الْآمِ": 4389,
      "الْمَنْهَ": 4390,
      "الْوَلَدَ": 4391,
      "الْمَذْكُورُ": 4392,
      "عَقَدَ": 4393,
      "لِهَذَا": 4394,
      "مَنَعَ": 4395,
      "بِجَمِيعِ": 4396,
      "رَادِ": 4397,
      "جِبَ": 4398,
      "اللَّفْظِ": 4399,
      "الْإِمْ": 4400,
      "يَتَيْنِ": 4401,
      "ئَةِ": 4402,
      "ثَلَاثِينَ": 4403,
      "امْرَأَتِهِ": 4404,
      "الرُّكُو": 4405,
      "عَمَلِهِ": 4406,
      "وَالثَّ": 4407,
      "الْمَأْذُو": 4408,
      "الْخَمْرِ": 4409,
      "يُقْتَلُ": 4410,
      "سُبْحَانَهُ": 4411,
      "مُتَّفَقٌ": 4412,
      "أَدَا": 4413,
      "عَشَ": 4414,
      "عَمَّنْ": 4415,
      "فَتَا": 4416,
      "بَى": 4417,
      "لَاكِ": 4418,
      "سَلَا": 4419,
      "يُتَّ": 4420,
      "الْمَسَا": 4421,
      "وَالْآخَرُ": 4422,
      "جَاوَزَ": 4423,
      "تَاعِ": 4424,
      "عِنْدَهُمْ": 4425,
      "اسْمِ": 4426,
      "السَّفَرِ": 4427,
      "فَقَالَتْ": 4428,
      "السُّبْكِي": 4429,
      "حُرِّي": 4430,
      "صَحِيحًا": 4431,
      "الْمُوصِي": 4432,
      "الْبَيِّنَةُ": 4433,
      "وَكَّلَ": 4434,
      "إجْمَا": 4435,
      "الْإِسْنَوِيُّ": 4436,
      "تُوُفِّيَ": 4437,
      "يَطْ": 4438,
      "مِقْدَا": 4439,
      "كَى": 4440,
      "حَظ": 4441,
      "سَمَ": 4442,
      "أَنْفُ": 4443,
      "تُهُمَا": 4444,
      "بِيَّةِ": 4445,
      "جُرْ": 4446,
      "مِنْهُنَّ": 4447,
      "الْإِجْ": 4448,
      "قَوْلِهِمْ": 4449,
      "ذِرَا": 4450,
      "وَتَعَا": 4451,
      "رَجُلَيْنِ": 4452,
      "فَرْضٍ": 4453,
      "الْعِتْقُ": 4454,
      "وَضْعِ": 4455,
      "اجْتَ": 4456,
      "وٌ": 4457,
      "أَشَ": 4458,
      "أَيِّ": 4459,
      "قَلِّ": 4460,
      "يَيْنِ": 4461,
      "بَرُّ": 4462,
      "مْرَا": 4463,
      "لْقِ": 4464,
      "سَأَلَ": 4465,
      "يُبَيِّ": 4466,
      "قَوْلَانِ": 4467,
      "جَرَى": 4468,
      "الْإِحْ": 4469,
      "وَأَشْ": 4470,
      "التَّخْ": 4471,
      "الْحَقَّ": 4472,
      "عِيدِ": 4473,
      "بِالْبَيْعِ": 4474,
      "وَيُؤْخَذُ": 4475,
      "طُلْ": 4476,
      "شِهَا": 4477,
      "وَلِذَا": 4478,
      "الْعُلَ": 4479,
      "حَمْلِ": 4480,
      "يَدْخُلْ": 4481,
      "لِلسَّيِّدِ": 4482,
      "يُخَالِفُ": 4483,
      "الْجَمِيعِ": 4484,
      "صُدِّقَ": 4485,
      "إعْ": 4486,
      "ضِّ": 4487,
      "لَحِ": 4488,
      "نْزِي": 4489,
      "عَزْ": 4490,
      "بِهَذِهِ": 4491,
      "رَجِ": 4492,
      "بَوَيْنِ": 4493,
      "حَفْ": 4494,
      "دَلَا": 4495,
      "دَمٌ": 4496,
      "رِدْ": 4497,
      "سْتَا": 4498,
      "صَفْ": 4499,
      "صَلِّي": 4500,
      "الْمُبْ": 4501,
      "الْمُخْ": 4502,
      "ضَمِ": 4503,
      "الْحَقِي": 4504,
      "السَّنَةِ": 4505,
      "الْبَحْ": 4506,
      "أَخْذِهِ": 4507,
      "عَلَيْكُمْ": 4508,
      "قَامَتْ": 4509,
      "خَمْسَةٍ": 4510,
      "الْوَقْفُ": 4511,
      "خَيْرٌ": 4512,
      "الْمَجْلِسِ": 4513,
      "الْغُسْلِ": 4514,
      "بِشَرْطٍ": 4515,
      "صَدَّقُ": 4516,
      "الْمُحَرَّرِ": 4517,
      "السَّبَبِ": 4518,
      "مُعَاوِيَةَ": 4519,
      "أَيُّو": 4520,
      "الْآخَرَ": 4521,
      "نْيَا": 4522,
      "لِحَاجَ": 4523,
      "رَزَ": 4524,
      "نَقُولُ": 4525,
      "بَدْ": 4526,
      "نِسَا": 4527,
      "الْمُطْلَ": 4528,
      "عُدْ": 4529,
      "حُرِّ": 4530,
      "أُذُ": 4531,
      "لِلْأَ": 4532,
      "ثْرَةِ": 4533,
      "غَسْلِ": 4534,
      "وَيَرْجِعُ": 4535,
      "ضْعِ": 4536,
      "السَّهْ": 4537,
      "مُسْتَأْجِ": 4538,
      "الْعَامِلِ": 4539,
      "الرِّبْحِ": 4540,
      "يُمْكِنْ": 4541,
      "يَقُومُ": 4542,
      "الصِّفَةِ": 4543,
      "النِّكَاحُ": 4544,
      "مُتَّصِ": 4545,
      "الْوَجْهَ": 4546,
      "خُرُوجِهِ": 4547,
      "جَمَاعَةٍ": 4548,
      "شَخْصٌ": 4549,
      "مَحَلِّهِ": 4550,
      "قُطِعَ": 4551,
      "فَأَكْثَرَ": 4552,
      "أَلُ": 4553,
      "وَصَلَ": 4554,
      "مُنَ": 4555,
      "مَالُهُ": 4556,
      "جَيْ": 4557,
      "كَارِ": 4558,
      "ذَهَا": 4559,
      "أَنْبَ": 4560,
      "الْمَرَضِ": 4561,
      "جُهُ": 4562,
      "أُصْبُ": 4563,
      "دَارِهِ": 4564,
      "وَيَحْتَمِلُ": 4565,
      "الْبَيِّ": 4566,
      "اسْتِئْ": 4567,
      "نُونٌ": 4568,
      "بَلَدِ": 4569,
      "مُتَمَ": 4570,
      "عَقْدٍ": 4571,
      "وَالْأَصَحُّ": 4572,
      "لِلْإِمَامِ": 4573,
      "الرُّجُوعِ": 4574,
      "الْوَاقِفِ": 4575,
      "سَعْدٍ": 4576,
      "وَيَحْرُمُ": 4577,
      "كَرَاهَ": 4578,
      "الْمَاوَرْدِيُّ": 4579,
      "الْمَنْهَجِ": 4580,
      "وَفُ": 4581,
      "لِزَيْدٍ": 4582,
      "فَكَذَا": 4583,
      "مِنِّي": 4584,
      "لْت": 4585,
      "رِطْ": 4586,
      "رِيرِ": 4587,
      "دِيدِ": 4588,
      "وَيَدْ": 4589,
      "الصَّبِيِّ": 4590,
      "الشَّهْرِ": 4591,
      "مِلْكَ": 4592,
      "ثُلُثَ": 4593,
      "مَرْفُو": 4594,
      "جِنْسِهِ": 4595,
      "حَاجَةَ": 4596,
      "أَصْحَابِ": 4597,
      "الْقِيَامَةِ": 4598,
      "مُعْسِ": 4599,
      "اللَّيْلِ": 4600,
      "النَّفَقَةِ": 4601,
      "وَاسْتِ": 4602,
      "وَيْهِ": 4603,
      "لِأَحَدٍ": 4604,
      "بِمِثْلِهِ": 4605,
      "قَرَأَ": 4606,
      "رَكِ": 4607,
      "يَرَى": 4608,
      "سَوْ": 4609,
      "سَمَا": 4610,
      "نَاهَا": 4611,
      "كُتُ": 4612,
      "الْعَزِي": 4613,
      "غَسْ": 4614,
      "الْإِشْ": 4615,
      "قُوَّةِ": 4616,
      "الْفَقِي": 4617,
      "يَعْقُو": 4618,
      "بِأَنَّهَا": 4619,
      "يُعْرَفُ": 4620,
      "النَّارِ": 4621,
      "لِأَنَّا": 4622,
      "وَكِيلِ": 4623,
      "يَمْلِكُهُ": 4624,
      "ذِكْرُ": 4625,
      "شَهَادَتُهُ": 4626,
      "قَصْدِ": 4627,
      "فَسْخِ": 4628,
      "الْمُكَاتَبُ": 4629,
      "خْتُلِفَ": 4630,
      "الْتَ": 4631,
      "عَلَا": 4632,
      "بِحُكْمِ": 4633,
      "رَحْ": 4634,
      "رَفَعَ": 4635,
      "مِسْ": 4636,
      "رِضَا": 4637,
      "نَادِ": 4638,
      "خَبَرُ": 4639,
      "الْمَطْلُو": 4640,
      "فَارَقَ": 4641,
      "أُمَ": 4642,
      "الْعَفْ": 4643,
      "سُمِّيَ": 4644,
      "زِنًا": 4645,
      "بُوا": 4646,
      "صِحَّةُ": 4647,
      "كَلَامُهُ": 4648,
      "كَالْإِ": 4649,
      "الطَّعَامِ": 4650,
      "يَسْتَوْ": 4651,
      "يُسَلِّ": 4652,
      "عُمْرَةِ": 4653,
      "ذُّرِ": 4654,
      "الزُّهْ": 4655,
      "حَجَرٍ": 4656,
      "صَّا": 4657,
      "عَمُّ": 4658,
      "لِأَهْلِ": 4659,
      "بِالِا": 4660,
      "فَعْ": 4661,
      "فَةً": 4662,
      "دَوَا": 4663,
      "هَادِ": 4664,
      "سْخَ": 4665,
      "يُحْتَمَلُ": 4666,
      "نَاءِ": 4667,
      "وَالْأَصْلُ": 4668,
      "حَارِ": 4669,
      "لِلْعَبْدِ": 4670,
      "يَاءَ": 4671,
      "مَعْصِيَ": 4672,
      "حُكْمِهِ": 4673,
      "وَجَعَلَ": 4674,
      "وَجَدَهُ": 4675,
      "قْتَضَى": 4676,
      "غَيْرَهَا": 4677,
      "تَفْصِي": 4678,
      "تَرَكَهُ": 4679,
      "تَزَوَّجَهَا": 4680,
      "عْتَاقِ": 4681,
      "وَأَخْبَرَ": 4682,
      "مَرْأَةِ": 4683,
      "الرَّأْسِ": 4684,
      "ثَيْ": 4685,
      "عَبَّرَ": 4686,
      "رَتَيْنِ": 4687,
      "نَاقِ": 4688,
      "كْنَى": 4689,
      "إلَيَّ": 4690,
      "الْحَكَمِ": 4691,
      "صَالَحَ": 4692,
      "شَايِ": 4693,
      "وَتَرْ": 4694,
      "الْحَاضِ": 4695,
      "أَكْلِ": 4696,
      "شَرَعَ": 4697,
      "بِعَهُ": 4698,
      "زَوْجُهَا": 4699,
      "يَفْعَلْ": 4700,
      "لَفْظُ": 4701,
      "نِكَاحِ": 4702,
      "جِنَايَةِ": 4703,
      "جُمْلَةِ": 4704,
      "نَانِيرَ": 4705,
      "وَيُمْكِنُ": 4706,
      "غٍ": 4707,
      "عَلُهُ": 4708,
      "فَوَجَبَ": 4709,
      "تَضْ": 4710,
      "مُقَيَّ": 4711,
      "قُبِلَ": 4712,
      "كِسْ": 4713,
      "بَيْتِهِ": 4714,
      "جَارِ": 4715,
      "عِيَّةِ": 4716,
      "وَالرِّ": 4717,
      "النّ": 4718,
      "تَعَلَّ": 4719,
      "الْخَصْ": 4720,
      "ثِيَا": 4721,
      "مَحَلٍّ": 4722,
      "عَقْدُ": 4723,
      "تَأَخِّ": 4724,
      "الْعِتْقَ": 4725,
      "خَوْفِ": 4726,
      "انْقِضَاءِ": 4727,
      "الْمُسْتَأْجِرِ": 4728,
      "الْمَوَّازِ": 4729,
      "وَنَحْوَهُ": 4730,
      "وَتَعَالَى": 4731,
      "أِ": 4732,
      "تَخَ": 4733,
      "نَّةُ": 4734,
      "يُتَصَوَّرُ": 4735,
      "جِزْ": 4736,
      "طَعْ": 4737,
      "زَوَا": 4738,
      "الْعَبَّا": 4739,
      "طَائِ": 4740,
      "الزَّائِ": 4741,
      "وِيّ": 4742,
      "الْقَاتِ": 4743,
      "أَلْفًا": 4744,
      "مَاتَتْ": 4745,
      "يُمْكِ": 4746,
      "وَضَعَ": 4747,
      "يُؤَثِّ": 4748,
      "يَشْمَلُ": 4749,
      "الزَّكَاةِ": 4750,
      "الْجَمَاعَةِ": 4751,
      "أَمَانَ": 4752,
      "بِسُ": 4753,
      "بِفِعْلِ": 4754,
      "كَةِ": 4755,
      "رِقَةِ": 4756,
      "يُغَ": 4757,
      "طَلَّ": 4758,
      "اللَّحْ": 4759,
      "وَأَقَرَّ": 4760,
      "فَيَصِحُّ": 4761,
      "يَنْوِ": 4762,
      "مَرَضِهِ": 4763,
      "كِينَ": 4764,
      "الضَّرَرِ": 4765,
      "الْأَمْرُ": 4766,
      "شَهْرًا": 4767,
      "إقْرَارُهُ": 4768,
      "جَعَلَهُ": 4769,
      "مُدَّةً": 4770,
      "دُخُولِهِ": 4771,
      "يُحَدُّ": 4772,
      "غَلَبَ": 4773,
      "يَتَوَقَّفُ": 4774,
      "الْمِلْكُ": 4775,
      "رَجْعِي": 4776,
      "لٌّ": 4777,
      "نًّا": 4778,
      "لِكُلٍّ": 4779,
      "مَقَامَ": 4780,
      "بِمَوْتِ": 4781,
      "تَلْزَمُهُ": 4782,
      "بَعَّ": 4783,
      "مُشَا": 4784,
      "كَرَّ": 4785,
      "وَاعِ": 4786,
      "َّاتِ": 4787,
      "الْمُرْتَ": 4788,
      "فْهُو": 4789,
      "سَارِ": 4790,
      "وَتَحْ": 4791,
      "هُورُ": 4792,
      "الثَّمَنُ": 4793,
      "بَيِّنَةُ": 4794,
      "الْمُؤَلِّ": 4795,
      "أَجَلٍ": 4796,
      "رِّيَّةِ": 4797,
      "طَيْ": 4798,
      "غِهِ": 4799,
      "بِمَوْتِهِ": 4800,
      "يُتَوَ": 4801,
      "هَمَ": 4802,
      "جَمَعَ": 4803,
      "دْرِ": 4804,
      "شَهُّ": 4805,
      "قِرَاءَةِ": 4806,
      "نِيَّةُ": 4807,
      "لِلْحَ": 4808,
      "لِيَا": 4809,
      "غَنِي": 4810,
      "قَبْلُ": 4811,
      "الْوَصْ": 4812,
      "وَالنِّ": 4813,
      "وَكَوْ": 4814,
      "فَقَتَ": 4815,
      "يُونِ": 4816,
      "ظُلْ": 4817,
      "أَحَدُكُمْ": 4818,
      "الْآخِ": 4819,
      "يَسْجُ": 4820,
      "زَوْجَتَهُ": 4821,
      "الْمَذْكُورَةِ": 4822,
      "مَشْرُو": 4823,
      "الزِّيَادَةِ": 4824,
      "أَجْزَأَهُ": 4825,
      "الْبَعْضِ": 4826,
      "عَمِّ": 4827,
      "مَلَةِ": 4828,
      "بِمَكَّةَ": 4829,
      "بَسَ": 4830,
      "لُهُمْ": 4831,
      "سِت": 4832,
      "الْعَمْ": 4833,
      "بِالْفِعْلِ": 4834,
      "الْبَغَ": 4835,
      "قْتَضِي": 4836,
      "عَيْبٌ": 4837,
      "وَبِهَذَا": 4838,
      "حُرٍّ": 4839,
      "وَسُئِلَ": 4840,
      "مَذْهَ": 4841,
      "وَعِنْدَهُمَا": 4842,
      "مَهْرُ": 4843,
      "صِفَةٍ": 4844,
      "الْوَرَثَةُ": 4845,
      "يَرْجِعْ": 4846,
      "الْمُعَيَّنِ": 4847,
      "الْجُمْلَةِ": 4848,
      "رْمِذِيُّ": 4849,
      "كَّا": 4850,
      "وَثَ": 4851,
      "لِخَبَرِ": 4852,
      "بِخَ": 4853,
      "فَشَ": 4854,
      "دَرَ": 4855,
      "بْعِ": 4856,
      "فِدْ": 4857,
      "بُرْ": 4858,
      "سِخُ": 4859,
      "وَأَمْ": 4860,
      "وَالسُّ": 4861,
      "فَيَلْزَمُهُ": 4862,
      "أَمْرٍ": 4863,
      "الْحَاجِبِ": 4864,
      "وَقْتُ": 4865,
      "خَمْسَةً": 4866,
      "الْحِلِّ": 4867,
      "سَيِّدُهُ": 4868,
      "قِسْمَةِ": 4869,
      "مَعْلُومٍ": 4870,
      "أَصَحُّ": 4871,
      "لِأَبِي": 4872,
      "لِصَاحِبِ": 4873,
      "مَعِي": 4874,
      "بِمِثْلِ": 4875,
      "قَتِهِ": 4876,
      "كَذِ": 4877,
      "طَوَا": 4878,
      "وَأَسْ": 4879,
      "الْحَيَا": 4880,
      "الْحَدِّ": 4881,
      "وَلَدَ": 4882,
      "مِيرِ": 4883,
      "الْقَدِي": 4884,
      "ثَلَاثٍ": 4885,
      "جِيزِ": 4886,
      "أَسْقَطَ": 4887,
      "بِحَسَبِ": 4888,
      "زِيَادَتِهِ": 4889,
      "وَغَيْرِهِمْ": 4890,
      "الْخَارِ": 4891,
      "صَدَّقَهُ": 4892,
      "وَيَأْتِي": 4893,
      "ذَهَبٍ": 4894,
      "طَلُقَتْ": 4895,
      "الْبَيِّنَةِ": 4896,
      "الْعَزِيزِ": 4897,
      "أَزْ": 4898,
      "أَرَى": 4899,
      "وَمِنْهُمْ": 4900,
      "مَنَافِ": 4901,
      "رَمْ": 4902,
      "رَضُ": 4903,
      "مُشْتَرَ": 4904,
      "يُبْطِ": 4905,
      "قْبَلُ": 4906,
      "دَّتْ": 4907,
      "رَاهَا": 4908,
      "قُمْ": 4909,
      "نِيَّةٌ": 4910,
      "عِيسَى": 4911,
      "النَّحْرِ": 4912,
      "وَإِلَى": 4913,
      "كُنْتُ": 4914,
      "قِيمَتِهَا": 4915,
      "مَالِكًا": 4916,
      "يَقْضِي": 4917,
      "فِعْلُهُ": 4918,
      "صَاحِبَ": 4919,
      "الْخَطَ": 4920,
      "أَرْبَعِينَ": 4921,
      "صَدَّقَ": 4922,
      "الْحَدِيثَ": 4923,
      "الْأُجْرَةِ": 4924,
      "مِيرَاثِ": 4925,
      "بَقِيَّةِ": 4926,
      "جَابِرٍ": 4927,
      "الْغَائِبِ": 4928,
      "رِيَةِ": 4929,
      "وَعَدَمِ": 4930,
      "بِطَرِيقِ": 4931,
      "تَرِكَ": 4932,
      "قَلُّ": 4933,
      "مِنًى": 4934,
      "مُقَابِ": 4935,
      "هَاشِ": 4936,
      "وَاسِ": 4937,
      "يُعِي": 4938,
      "لَّةُ": 4939,
      "هَذَيْنِ": 4940,
      "رُبُ": 4941,
      "رَّةَ": 4942,
      "بَانِ": 4943,
      "بِيرُ": 4944,
      "سُوطِ": 4945,
      "شِرَاءِ": 4946,
      "يَمْلِ": 4947,
      "أَرْبَعَةَ": 4948,
      "يُمْنَعُ": 4949,
      "بَدَلَ": 4950,
      "تَرْكُ": 4951,
      "شَهَادَةُ": 4952,
      "احْتِرَا": 4953,
      "آخِرِهِ": 4954,
      "فَائِدَةٌ": 4955,
      "انْقِطَا": 4956,
      "الدَّيْنَ": 4957,
      "الْجَمْعِ": 4958,
      "أَفَادَهُ": 4959,
      "الْوَاحِدِ": 4960,
      "الْإِذْنِ": 4961,
      "الْقَضَاءُ": 4962,
      "يُصَدَّقُ": 4963,
      "وَجَازَ": 4964,
      "مَلَّ": 4965,
      "مِعَ": 4966,
      "مُسَا": 4967,
      "مِنْكُمْ": 4968,
      "وَانَ": 4969,
      "كَاتِ": 4970,
      "عَاءِ": 4971,
      "أُعْ": 4972,
      "الْإِسْلَا": 4973,
      "الْحَيَوَا": 4974,
      "نْدَبُ": 4975,
      "النَّهْ": 4976,
      "تَقَدُّ": 4977,
      "أَصْبَ": 4978,
      "كِينِ": 4979,
      "عَلَيْك": 4980,
      "أَجْرُ": 4981,
      "تَبَرُّ": 4982,
      "أَلْفَ": 4983,
      "الْوَارِثُ": 4984,
      "كَوْنِهَا": 4985,
      "لَيْلًا": 4986,
      "عِتْقٍ": 4987,
      "فَسَدَ": 4988,
      "طَالِبٍ": 4989,
      "لَفْظَ": 4990,
      "مَعْلُومٌ": 4991,
      "الْمُرْتَهِنُ": 4992,
      "تَعَلُّقِ": 4993,
      "مَبْنِيٌّ": 4994,
      "يُبَاعُ": 4995,
      "بَعَثَ": 4996,
      "شِهَابٍ": 4997,
      "إشْ": 4998,
      "هِّ": 4999,
      "أَجَازَ": 5000,
      "الْقَدْرِ": 5001,
      "هِمَ": 5002,
      "بَذْ": 5003,
      "دَثَ": 5004,
      "سَتْ": 5005,
      "سَجَدَ": 5006,
      "هَقِيُّ": 5007,
      "عِبْ": 5008,
      "نُقْصَا": 5009,
      "دَّدَ": 5010,
      "عَادَةِ": 5011,
      "بَعْضَهُ": 5012,
      "لِيٍّ": 5013,
      "صَائِ": 5014,
      "وَلَهَا": 5015,
      "دِينَ": 5016,
      "يَتَنَا": 5017,
      "ظَهْرِ": 5018,
      "وُجُوبَ": 5019,
      "وَمَاتَ": 5020,
      "مُسْتَقِ": 5021,
      "ئِهِمْ": 5022,
      "خَمْسَةُ": 5023,
      "وَأَخْرَجَ": 5024,
      "وَهَكَذَا": 5025,
      "سُنَّةٌ": 5026,
      "حَيَاتِهِ": 5027,
      "قُدِّمَ": 5028,
      "لِقَ": 5029,
      "بِقِيمَتِهِ": 5030,
      "كَفِي": 5031,
      "يُثْ": 5032,
      "الْمُسْ": 5033,
      "الْمُخْتَ": 5034,
      "دَّعِيَ": 5035,
      "حِبُّ": 5036,
      "كْتِ": 5037,
      "لِلْأَوَّلِ": 5038,
      "الْقَرْ": 5039,
      "ذَكَرًا": 5040,
      "أَمْرٌ": 5041,
      "شُرْ": 5042,
      "ثَلَاثِ": 5043,
      "اُشْتُ": 5044,
      "مَحْذُو": 5045,
      "بِنْتَ": 5046,
      "مّا": 5047,
      "وَجْهِهِ": 5048,
      "طَعَامٍ": 5049,
      "الْقِصَاصُ": 5050,
      "الرُّو": 5051,
      "أَغْ": 5052,
      "وَأُخْ": 5053,
      "مَدَ": 5054,
      "نَصُّهُ": 5055,
      "كَرُ": 5056,
      "حَدُّ": 5057,
      "قَاضٍ": 5058,
      "جَرْ": 5059,
      "ذَفَ": 5060,
      "فِهَا": 5061,
      "كِمَ": 5062,
      "وَأَجْ": 5063,
      "تَابِ": 5064,
      "فَيَقُولُ": 5065,
      "يَانُ": 5066,
      "شَاءِ": 5067,
      "الْحَاجَةِ": 5068,
      "صُلُ": 5069,
      "ظَاهِرًا": 5070,
      "يَرْتَ": 5071,
      "الْغَصْبِ": 5072,
      "وَبِنْ": 5073,
      "بَدَلِ": 5074,
      "ظْهَرِ": 5075,
      "أَمَتِهِ": 5076,
      "نَصِيبَهُ": 5077,
      "عَامِلِ": 5078,
      "عَمَلًا": 5079,
      "رَكْعَةً": 5080,
      "الْيَمِينُ": 5081,
      "الثَّلَاثِ": 5082,
      "لُزُومِ": 5083,
      "الْفِطْرِ": 5084,
      "بِإِقْرَارِهِ": 5085,
      "وَبِالْ": 5086,
      "وَعِشْرُونَ": 5087,
      "لِجَوَازِ": 5088,
      "تَحِلُّ": 5089,
      "تَزْوِي": 5090,
      "مُجْ": 5091,
      "مُضِيِّ": 5092,
      "حَذْ": 5093,
      "يُكْ": 5094,
      "يُطْلَ": 5095,
      "قَاءِ": 5096,
      "دِبَ": 5097,
      "عَايَةِ": 5098,
      "هْلِ": 5099,
      "صِفَةِ": 5100,
      "وَّمُ": 5101,
      "ءَهُ": 5102,
      "الرَّكْ": 5103,
      "خَاطَ": 5104,
      "ابْنِهِ": 5105,
      "زِيَّةِ": 5106,
      "أَشْهَبَ": 5107,
      "الْوَاجِبِ": 5108,
      "اشْتَرَ": 5109,
      "تَأْوِي": 5110,
      "يُعْتَقُ": 5111,
      "عُرْوَةَ": 5112,
      "يَخْرُجْ": 5113,
      "الصَّحِيحُ": 5114,
      "مَذْهَبُ": 5115,
      "الْحَسَنُ": 5116,
      "لِكَوْنِ": 5117,
      "وَلَكِنَّهُ": 5118,
      "الظُّهْرِ": 5119,
      "وَقَضِيَّةُ": 5120,
      "ثَيْنِ": 5121,
      "وَآ": 5122,
      "وَقُ": 5123,
      "لِانْتِ": 5124,
      "يْتَ": 5125,
      "بِالدَّيْنِ": 5126,
      "قَبِي": 5127,
      "قَضَتْ": 5128,
      "مِلُهُ": 5129,
      "مَارِ": 5130,
      "قَوْمٍ": 5131,
      "بَيْعَ": 5132,
      "نِيَّةٍ": 5133,
      "أُخِذَ": 5134,
      "الرَّدُّ": 5135,
      "مُوصَى": 5136,
      "أَمْرِ": 5137,
      "مِهِمْ": 5138,
      "ثَلَاثُ": 5139,
      "النِّسَاءِ": 5140,
      "ثَانِ": 5141,
      "جَازَةِ": 5142,
      "الْحِنْ": 5143,
      "نَظَرًا": 5144,
      "أَخْبَرَنِي": 5145,
      "رَكْعَةٍ": 5146,
      "تَمْلِي": 5147,
      "يَخْتَصُّ": 5148,
      "الْفَسْخُ": 5149,
      "ثُونَ": 5150,
      "ثَانِيًا": 5151,
      "يَقْدِرُ": 5152,
      "مَرْفُوعًا": 5153,
      "ثَّا": 5154,
      "بِنِيَّةِ": 5155,
      "نَجْ": 5156,
      "نَسِيَ": 5157,
      "حَلَا": 5158,
      "هَامِ": 5159,
      "سَرِ": 5160,
      "سَخِ": 5161,
      "يُصْ": 5162,
      "قَوْلٍ": 5163,
      "جَمَةِ": 5164,
      "قْهُ": 5165,
      "الْمَمْ": 5166,
      "قِطُ": 5167,
      "طَلْحَ": 5168,
      "بَاقٍ": 5169,
      "وَالْأَوَّلُ": 5170,
      "غَزْ": 5171,
      "جُوسِي": 5172,
      "شْتَرَى": 5173,
      "مِلْكًا": 5174,
      "صُلْ": 5175,
      "الْمَانِ": 5176,
      "ُّوا": 5177,
      "رَيْجٍ": 5178,
      "بِحَضْ": 5179,
      "مَجْلِ": 5180,
      "مَجْمُو": 5181,
      "يُصَلِّيَ": 5182,
      "يُسَنُّ": 5183,
      "كَثِيرٌ": 5184,
      "الصَّدَقَةِ": 5185,
      "الْتِزَا": 5186,
      "الْإِجَارَةُ": 5187,
      "عَقِيلٍ": 5188,
      "ءًا": 5189,
      "إدْ": 5190,
      "لَغَ": 5191,
      "وَنِصْ": 5192,
      "تَحَقَّ": 5193,
      "رَدَ": 5194,
      "يُخَ": 5195,
      "الْمُتْ": 5196,
      "رِيضَ": 5197,
      "حَالَةِ": 5198,
      "لِينَ": 5199,
      "الشَّخْ": 5200,
      "غُسْلِ": 5201,
      "أَرْبَعَةٍ": 5202,
      "النَّاسَ": 5203,
      "عِتْقُهُ": 5204,
      "الْمُسْلِمُ": 5205,
      "الْفَرْقِ": 5206,
      "وَارِثٍ": 5207,
      "احْتِيَا": 5208,
      "وَطْءٍ": 5209,
      "يُسْرَى": 5210,
      "أَخْذُهُ": 5211,
      "الدِّيَةُ": 5212,
      "الْفَضْلِ": 5213,
      "ضَمِنَهُ": 5214,
      "وَمَعْنَى": 5215,
      "فَأَنْ": 5216,
      "فَهَذِهِ": 5217,
      "فَأَنْتِ": 5218,
      "مَامُ": 5219,
      "دَنَانِيرَ": 5220,
      "وَالِي": 5221,
      "سَلْ": 5222,
      "ثُمّ": 5223,
      "الْعَرَبِ": 5224,
      "خُنْثَى": 5225,
      "زِدْ": 5226,
      "مُوجِ": 5227,
      "مَعْطُو": 5228,
      "غَيْرِهِمَا": 5229,
      "فَأَشْ": 5230,
      "أَرْشِ": 5231,
      "الدَّفْ": 5232,
      "يَقْصِدْ": 5233,
      "فِعْلٍ": 5234,
      "صَاحِبُهُ": 5235,
      "أَرْبَعَةُ": 5236,
      "عُبَيْدِ": 5237,
      "إسْقَا": 5238,
      "يَشْتَرِيَ": 5239,
      "ذِمِّيٍّ": 5240,
      "الثَّانِيَةُ": 5241,
      "يَرِدُ": 5242,
      "مَنْصُورٍ": 5243,
      "الْبَغَوِيّ": 5244,
      "شِّ": 5245,
      "ىِّ": 5246,
      "لَقَدْ": 5247,
      "وَلُ": 5248,
      "عَفَّا": 5249,
      "يْلَ": 5250,
      "بِنَقْ": 5251,
      "فَلَهَا": 5252,
      "رَتَّ": 5253,
      "كَفَا": 5254,
      "كَنَهُ": 5255,
      "يُقَدَّمُ": 5256,
      "عُرِفَ": 5257,
      "أَيْدِي": 5258,
      "الْمَضْ": 5259,
      "دُقُ": 5260,
      "الْأَبْ": 5261,
      "حُصُو": 5262,
      "لِيلُ": 5263,
      "وَإِمَّا": 5264,
      "يَنْفُذُ": 5265,
      "الْجَنَا": 5266,
      "شُرِطَ": 5267,
      "الْآدَ": 5268,
      "تَعْيِي": 5269,
      "زُولُ": 5270,
      "مُنْفَرِ": 5271,
      "يَقَعْ": 5272,
      "وَرِثَ": 5273,
      "مَيْتَ": 5274,
      "قَبَضَهُ": 5275,
      "شَهَادَتِهِ": 5276,
      "قَيَّدَ": 5277,
      "التِّجَارَةِ": 5278,
      "الْمَبْسُوطِ": 5279,
      "آدَمِيٍّ": 5280,
      "الْكَلَامُ": 5281,
      "فَخَرَجَ": 5282,
      "يَلْتَ": 5283,
      "مُكَلَّ": 5284,
      "يُحْرِ": 5285,
      "جَدِّهِ": 5286,
      "ذَيْ": 5287,
      "نَازَ": 5288,
      "جُلُو": 5289,
      "الْإِتْ": 5290,
      "التَّدْ": 5291,
      "سَاكِ": 5292,
      "خِلَافٍ": 5293,
      "الْقَيْ": 5294,
      "ظُهُورِ": 5295,
      "يَخْلُو": 5296,
      "بَدَنِهِ": 5297,
      "ثَمَنٍ": 5298,
      "يُحْمَلُ": 5299,
      "تَسْقُطُ": 5300,
      "مَقْبُو": 5301,
      "يَدْخُلَ": 5302,
      "دَلِيلٌ": 5303,
      "أَصْحَابِهِ": 5304,
      "مُعْتَبَ": 5305,
      "قَرِيبًا": 5306,
      "الْأَلْفِ": 5307,
      "الْقِبْلَةِ": 5308,
      "الْوَجْهَيْنِ": 5309,
      "بِدْ": 5310,
      "رَتَهُ": 5311,
      "يُبْ": 5312,
      "عُدُ": 5313,
      "الْمَحَلِّ": 5314,
      "وَالْقَ": 5315,
      "حَالَةَ": 5316,
      "غَصْ": 5317,
      "الْحَنَفِي": 5318,
      "خُلْ": 5319,
      "وَالطَّ": 5320,
      "وَالشَّا": 5321,
      "الشَّكِّ": 5322,
      "مَعْرِفَةِ": 5323,
      "غَيْرِهِمْ": 5324,
      "أَرْضًا": 5325,
      "مَرَضِ": 5326,
      "وَجْهٌ": 5327,
      "وُجُودِهِ": 5328,
      "الْخَبَرِ": 5329,
      "الْأَرْضُ": 5330,
      "عَيْنًا": 5331,
      "يُمْنَى": 5332,
      "الْجِزْ": 5333,
      "امْرَأَتَهُ": 5334,
      "الْمَرْهُو": 5335,
      "يَضْمَ": 5336,
      "يَجْعَلَ": 5337,
      "كَسْبِهِ": 5338,
      "عَامِرٍ": 5339,
      "رَبِّهِ": 5340,
      "مُعَيَّنًا": 5341,
      "أَثَرَ": 5342,
      "وَكَّلَهُ": 5343,
      "عُثْمَانُ": 5344,
      "وَيُسْتَحَبُّ": 5345,
      "تَصْحِيحِهِ": 5346,
      "يُمْكِنُهُ": 5347,
      "إزَا": 5348,
      "ذٌ": 5349,
      "كِيَ": 5350,
      "الذُّ": 5351,
      "وَكَمَا": 5352,
      "بِأَكْثَرَ": 5353,
      "يَقِ": 5354,
      "يَظُ": 5355,
      "بَتَهُ": 5356,
      "بْن": 5357,
      "قَاقِ": 5358,
      "ذَانِ": 5359,
      "تُنْ": 5360,
      "رَاجَ": 5361,
      "الْأَئِمَّةِ": 5362,
      "لِلْوَرَثَةِ": 5363,
      "وَأَطْلَقَ": 5364,
      "الْحَقُّ": 5365,
      "دَاتِ": 5366,
      "خُذَ": 5367,
      "خُذْ": 5368,
      "يَاتِ": 5369,
      "وَيُعْ": 5370,
      "ذِمَّةِ": 5371,
      "أَعْطَا": 5372,
      "مَرَّةٍ": 5373,
      "الشَّرْطُ": 5374,
      "وُقُوعِ": 5375,
      "الْمَبِيعَ": 5376,
      "الْأَخْذِ": 5377,
      "لَازِمٌ": 5378,
      "اخْتَارَ": 5379,
      "الْبُخَارِيُّ": 5380,
      "الْجِنْسِ": 5381,
      "لِلْمُسْلِمِينَ": 5382,
      "يَظْهَرْ": 5383,
      "اجْتَمَعَ": 5384,
      "جَّةِ": 5385,
      "يًا": 5386,
      "بِرْ": 5387,
      "بِحِ": 5388,
      "فَوَّ": 5389,
      "كَرْ": 5390,
      "حَلْ": 5391,
      "الْمُسَ": 5392,
      "الْمُتَأَخِّ": 5393,
      "كْسِ": 5394,
      "حُقُو": 5395,
      "مَنْعُ": 5396,
      "لِلْأُمِّ": 5397,
      "لِيًّا": 5398,
      "التَّرِكَةِ": 5399,
      "الْحَرَا": 5400,
      "الرَّقَبَةِ": 5401,
      "أَمْوَا": 5402,
      "سِهِمْ": 5403,
      "أَخْبَرَهُ": 5404,
      "جَّلَ": 5405,
      "الْبَاقِيَ": 5406,
      "عْتِقِ": 5407,
      "أَرْبَعِ": 5408,
      "النَّاظِ": 5409,
      "الرِّقِّ": 5410,
      "الْحِنْطَ": 5411,
      "كْرِهَ": 5412,
      "يَجْتَ": 5413,
      "يُعَيِّ": 5414,
      "أَبَى": 5415,
      "بِسَبَبٍ": 5416,
      "الْغَاصِبُ": 5417,
      "الرِّوَايَةِ": 5418,
      "انْتَقَلَ": 5419,
      "فِضَّةٍ": 5420,
      "أَيُّوبَ": 5421,
      "إشَا": 5422,
      "عَنِّي": 5423,
      "بَوْ": 5424,
      "مُقَ": 5425,
      "مُتْ": 5426,
      "مُطَ": 5427,
      "مُوَكِّ": 5428,
      "مُبْتَدَ": 5429,
      "كَسَائِرِ": 5430,
      "حَب": 5431,
      "عْدِ": 5432,
      "وَاحْتَ": 5433,
      "سَوَا": 5434,
      "رْسِ": 5435,
      "الْمُزَا": 5436,
      "الْمُخْتَا": 5437,
      "بَاعُ": 5438,
      "ضَعَ": 5439,
      "غَنَ": 5440,
      "وَأَقَامَ": 5441,
      "التَّحَ": 5442,
      "تَارَةً": 5443,
      "ضَاعِ": 5444,
      "وَيُشْتَرَطُ": 5445,
      "وَكَلَامُ": 5446,
      "مُورِ": 5447,
      "الِاسْتِي": 5448,
      "الْجَنَّةِ": 5449,
      "وَمَتَى": 5450,
      "تَقْيِي": 5451,
      "سَيِّدِهَا": 5452,
      "الْوَصِيَّةَ": 5453,
      "سَهْمٍ": 5454,
      "بَاعَهَا": 5455,
      "الطَّلَاقَ": 5456,
      "أَجْنَبِيٌّ": 5457,
      "دَفَعَهُ": 5458,
      "النِّصْفُ": 5459,
      "الْحَافِظُ": 5460,
      "لَعَ": 5461,
      "أَنِّي": 5462,
      "وَأَوْ": 5463,
      "وَحَيْثُ": 5464,
      "وَصَارَ": 5465,
      "لِنَحْوِ": 5466,
      "بِعْ": 5467,
      "يَسَ": 5468,
      "يَخُ": 5469,
      "بَنَى": 5470,
      "مُشْكِ": 5471,
      "كَذَّ": 5472,
      "نَّةَ": 5473,
      "مْنَاهُ": 5474,
      "دَمُ": 5475,
      "سَفِي": 5476,
      "عِدَّةِ": 5477,
      "كُمُ": 5478,
      "جِرَ": 5479,
      "الْأَظْهَرِ": 5480,
      "شْرُ": 5481,
      "ضَمَانِ": 5482,
      "جُنُ": 5483,
      "جُبَيْ": 5484,
      "لِلْمَوْلَى": 5485,
      "دَاءُ": 5486,
      "وَلَدِهَا": 5487,
      "فَيَصِيرُ": 5488,
      "نَحْنُ": 5489,
      "كُلِّهَا": 5490,
      "أَحْسَنُ": 5491,
      "وَمَفْهُو": 5492,
      "عَيْنَ": 5493,
      "يُقْبَلْ": 5494,
      "زَوَّجَهَا": 5495,
      "إِسْمَاعِي": 5496,
      "الصُّلْحِ": 5497,
      "الزَّوْجَةُ": 5498,
      "الْمُشْتَرِيَ": 5499,
      "الْخُرُوجِ": 5500,
      "فَضَلَ": 5501,
      "الْوَكَالَةِ": 5502,
      "يَمْتَنِعُ": 5503,
      "خِهِ": 5504,
      "لَفُ": 5505,
      "قَبِ": 5506,
      "لَاصَةِ": 5507,
      "سَكَتَ": 5508,
      "الْمُكْ": 5509,
      "قْبِ": 5510,
      "شَرِكَ": 5511,
      "قُبَيْ": 5512,
      "زَهُ": 5513,
      "قِيقُ": 5514,
      "لِلْآخَرِ": 5515,
      "الْحَجَّ": 5516,
      "تَقَوِّ": 5517,
      "ثِنْ": 5518,
      "دُومِ": 5519,
      "خَمْسُ": 5520,
      "الْأُمُّ": 5521,
      "أَلْفٍ": 5522,
      "يَمْنَ": 5523,
      "تَوَقُّ": 5524,
      "الْجُزْ": 5525,
      "يَوْمَيْنِ": 5526,
      "تَعْرِي": 5527,
      "رَحِمَ": 5528,
      "قَدَّمَهُ": 5529,
      "جَاءَتْ": 5530,
      "مَيِّتِ": 5531,
      "يَضُرَّ": 5532,
      "الزَّرْعِ": 5533,
      "أَخِيهِ": 5534,
      "وَيُؤَيِّ": 5535,
      "قُرَيْشٍ": 5536,
      "نٍّ": 5537,
      "أَسَ": 5538,
      "وَحِ": 5539,
      "لِفْ": 5540,
      "مَسَائِ": 5541,
      "بِقُ": 5542,
      "بِالْحَجِّ": 5543,
      "بِحَقٍّ": 5544,
      "مِلٌ": 5545,
      "جَرُ": 5546,
      "زَةٌ": 5547,
      "عَاتِ": 5548,
      "أُنْ": 5549,
      "وُجِ": 5550,
      "رُوبِ": 5551,
      "وَيُحْ": 5552,
      "أَمْرِهِ": 5553,
      "عَلَيْنَا": 5554,
      "الْكَسْ": 5555,
      "الْعُبَابِ": 5556,
      "السُّنَّةِ": 5557,
      "الْخَامِ": 5558,
      "نَفَقَتُهُ": 5559,
      "سِتَّةٍ": 5560,
      "مَأْذُو": 5561,
      "اقْتَصَرَ": 5562,
      "الثَّالِثُ": 5563,
      "صَرِيحٌ": 5564,
      "اشْتِرَاطِ": 5565,
      "الْمَكْفُو": 5566,
      "الْخَارِجِ": 5567,
      "طَلْحَةَ": 5568,
      "إتْلَا": 5569,
      "خًا": 5570,
      "شِيَةِ": 5571,
      "قَّا": 5572,
      "أَضْ": 5573,
      "لِسَيِّدِهِ": 5574,
      "بِنَ": 5575,
      "بِعْتُ": 5576,
      "فَدَ": 5577,
      "فَفَعَلَ": 5578,
      "كَيْنِ": 5579,
      "وَانْظُرْ": 5580,
      "يُتْ": 5581,
      "الْمُشْتَرَ": 5582,
      "قِدَ": 5583,
      "وَالْبَاقِي": 5584,
      "اللَّبَ": 5585,
      "سُجُو": 5586,
      "الْإِفْ": 5587,
      "الْإِبِلِ": 5588,
      "صَامَ": 5589,
      "خُطْ": 5590,
      "وَسَبْ": 5591,
      "زُفَرَ": 5592,
      "انْعِ": 5593,
      "أَرْضِهِ": 5594,
      "غُرَ": 5595,
      "مَالِكِهِ": 5596,
      "بِعَرَ": 5597,
      "الْأَرْضَ": 5598,
      "الِاقْ": 5599,
      "تَعْجِي": 5600,
      "الْمَنْعُ": 5601,
      "وَغَيْرِهِمَا": 5602,
      "الْأَمْرَيْنِ": 5603,
      "بِالْإِجْمَاعِ": 5604,
      "إقْرَارِهِ": 5605,
      "عِدَّتُهَا": 5606,
      "يُحَدِّ": 5607,
      "عَدْلٍ": 5608,
      "جَارِيَةً": 5609,
      "عَكْسُهُ": 5610,
      "غَرِمَ": 5611,
      "الْمُقِرِّ": 5612,
      "الضَّا": 5613,
      "الرَّافِعِيُّ": 5614,
      "الْعُلَمَاءِ": 5615,
      "الْعَمْدِ": 5616,
      "وَأَوْلَى": 5617,
      "لِحَقِّ": 5618,
      "بِتُ": 5619,
      "فَسَّ": 5620,
      "تَطَوُّ": 5621,
      "بْتُ": 5622,
      "الْأَدَاءِ": 5623,
      "كِرُ": 5624,
      "فُهَا": 5625,
      "وَأَشَارَ": 5626,
      "الْحَجْرِ": 5627,
      "تَاجَ": 5628,
      "كَمَالِ": 5629,
      "بِالْخِيَارِ": 5630,
      "الْبَقَ": 5631,
      "الثَّمَ": 5632,
      "إذْنٍ": 5633,
      "أَلْفُ": 5634,
      "صَلَاةُ": 5635,
      "رَأْسَ": 5636,
      "زَوَّجْ": 5637,
      "الْجَارِيَ": 5638,
      "يُحْكَمُ": 5639,
      "الذَّبْحِ": 5640,
      "الدُّنْيَا": 5641,
      "عَلِيٌّ": 5642,
      "قَائِمًا": 5643,
      "فَاعِلِ": 5644,
      "الْعَدْلِ": 5645,
      "الصَّحَابَةِ": 5646,
      "السُّبْكِيُّ": 5647,
      "زُّ": 5648,
      "وَكَا": 5649,
      "الْغِ": 5650,
      "مَتَا": 5651,
      "بِقِيمَةِ": 5652,
      "نَهَى": 5653,
      "مُطَالَ": 5654,
      "مَاعُ": 5655,
      "نُسْخَ": 5656,
      "وَالْمَعْنَى": 5657,
      "وَيَجْ": 5658,
      "صُورَةِ": 5659,
      "يَعْمَلُ": 5660,
      "فَرْضُ": 5661,
      "عْتِقَ": 5662,
      "يَقْصِ": 5663,
      "فِعْلَ": 5664,
      "الْمُسْتَأْ": 5665,
      "الْوَقْتُ": 5666,
      "الشَّيْخِ": 5667,
      "زِيَادَةٍ": 5668,
      "مَيِّتًا": 5669,
      "الذَّهَبِ": 5670,
      "الْكُفَّا": 5671,
      "الثَّوْبَ": 5672,
      "يَحْصُلْ": 5673,
      "نَسَبُهُ": 5674,
      "رَهْنًا": 5675,
      "عَالِمًا": 5676,
      "الزُّبَيْرِ": 5677,
      "يُجْزِئُهُ": 5678,
      "ضَامِنٌ": 5679,
      "تَوَضَّأَ": 5680,
      "مَقَامَهُ": 5681,
      "وَةً": 5682,
      "وَعُلِمَ": 5683,
      "عَفْ": 5684,
      "مَعِ": 5685,
      "بِفَ": 5686,
      "فَجَعَلَ": 5687,
      "يَمُو": 5688,
      "رِدَّ": 5689,
      "إِلَ": 5690,
      "سَجْ": 5691,
      "رْجِ": 5692,
      "ثَمَرَ": 5693,
      "ضَمَانُ": 5694,
      "الْعَصْرِ": 5695,
      "التَّشْ": 5696,
      "تَارِ": 5697,
      "تَابُ": 5698,
      "دِيٍّ": 5699,
      "وَيَتَّ": 5700,
      "وِيَّةِ": 5701,
      "وِتْ": 5702,
      "الْمَاجِ": 5703,
      "مُسْتَأْ": 5704,
      "الرِّفْعَةِ": 5705,
      "الْخُطْ": 5706,
      "الْحِرْ": 5707,
      "صَوْمِ": 5708,
      "أَصْحَابِنَا": 5709,
      "أَوْجَبَ": 5710,
      "الرَّهْنُ": 5711,
      "بِأَلْفِ": 5712,
      "الْبَدَلِ": 5713,
      "الرَّمْلِيُّ": 5714,
      "الْفَصْلِ": 5715,
      "بِعَيْبٍ": 5716,
      "كَثُرَ": 5717,
      "إتْ": 5718,
      "ئٍ": 5719,
      "َّتَهُ": 5720,
      "وَإِي": 5721,
      "مَبِي": 5722,
      "هِمُ": 5723,
      "هِبَةِ": 5724,
      "بِالْعَقْدِ": 5725,
      "فَقَا": 5726,
      "بْهُ": 5727,
      "وَاءِ": 5728,
      "الْأَمَةُ": 5729,
      "قِرُّ": 5730,
      "قِبَلِ": 5731,
      "غَيْبَةِ": 5732,
      "زَوُّ": 5733,
      "حُمَيْ": 5734,
      "صِلِ": 5735,
      "النَّوَ": 5736,
      "يَنْقَ": 5737,
      "سُونَ": 5738,
      "أَمْرُ": 5739,
      "نِصْفِهِ": 5740,
      "فَرَغَ": 5741,
      "فُونَ": 5742,
      "خِيَارَ": 5743,
      "اعْتِرَا": 5744,
      "عَتْهُ": 5745,
      "أُجْرَةَ": 5746,
      "فَاسِدٌ": 5747,
      "الذَّكَرِ": 5748,
      "وَاجِبٍ": 5749,
      "صَالِحِ": 5750,
      "مَذْهَبِ": 5751,
      "عُبَيْدٍ": 5752,
      "الْكَفَّارَةِ": 5753,
      "الْحَوْلِ": 5754,
      "اخْتَلَفَا": 5755,
      "الدَّرَاهِمِ": 5756,
      "ظُو": 5757,
      "وَهُنَا": 5758,
      "لِقِ": 5759,
      "فَقَوْلُ": 5760,
      "فَعُهُ": 5761,
      "تَقَا": 5762,
      "رَآ": 5763,
      "يَتُهُ": 5764,
      "مَائِهِ": 5765,
      "ذَبَ": 5766,
      "لَهُنَّ": 5767,
      "بَاقِيَ": 5768,
      "الْحَجُّ": 5769,
      "دِينِهِ": 5770,
      "وَيَعْ": 5771,
      "قُونَ": 5772,
      "شَيْخِنَا": 5773,
      "الشَّرِكَةِ": 5774,
      "أَرْضَ": 5775,
      "تَعَمَّ": 5776,
      "وَقَبَ": 5777,
      "وَقَيَّ": 5778,
      "وَفِيهَا": 5779,
      "مَرَّتَيْنِ": 5780,
      "صَدَقَةٌ": 5781,
      "نَفَقَةِ": 5782,
      "الْأَخْذُ": 5783,
      "إسْحَاقَ": 5784,
      "يَخْتَلِفُ": 5785,
      "آدَمَ": 5786,
      "الرَّاهِنُ": 5787,
      "رَبِيعَةَ": 5788,
      "التَّيَمُّمِ": 5789,
      "مَكْرُوهٌ": 5790,
      "ظَنِّهِ": 5791,
      "الْكَعْبَةِ": 5792,
      "مَمْنُوعٌ": 5793,
      "إجْمَاعًا": 5794,
      "الْمَاجِشُو": 5795,
      "إقَامَ": 5796,
      "الْكَلَامَ": 5797,
      "بِالْعَيْبِ": 5798,
      "تَجَ": 5799,
      "يَشْتَرِي": 5800,
      "نَخْ": 5801,
      "وَادَّعَى": 5802,
      "الْمُجْ": 5803,
      "جُرَيْجٍ": 5804,
      "الْإِعْ": 5805,
      "زِمَ": 5806,
      "النَّهْرِ": 5807,
      "أَحَبَّ": 5808,
      "تَقَعُ": 5809,
      "يَتَغَيَّ": 5810,
      "سِيَّ": 5811,
      "أَحَدُهُمْ": 5812,
      "الْحُرَّةِ": 5813,
      "يَفْعَلُ": 5814,
      "حَمْلُ": 5815,
      "وَارِثِ": 5816,
      "دَفْعُ": 5817,
      "وَاَللَّهِ": 5818,
      "يُخْرِجُ": 5819,
      "بَحَثَهُ": 5820,
      "الْمَشْهُورُ": 5821,
      "الْكَافِرِ": 5822,
      "الْقَوْلَيْنِ": 5823,
      "الْكَفَّارَةُ": 5824,
      "سَبِيلِ": 5825,
      "خِدْمَةِ": 5826,
      "الصَّيْدِ": 5827,
      "وَيُسَنُّ": 5828,
      "وَامْرَأَ": 5829,
      "تَعَيَّنُ": 5830,
      "وْمِ": 5831,
      "تَصِحَّ": 5832,
      "رَبَةِ": 5833,
      "حَرَ": 5834,
      "حَبَّ": 5835,
      "سَكَ": 5836,
      "خَشَ": 5837,
      "الْمَسَائِلِ": 5838,
      "رَاجَعْ": 5839,
      "فِرَ": 5840,
      "طَرَأَ": 5841,
      "بَيْعٌ": 5842,
      "جُلِ": 5843,
      "قِينَ": 5844,
      "دَارُ": 5845,
      "صَّةِ": 5846,
      "زِلَ": 5847,
      "بِالْأَوْلَى": 5848,
      "النَّجَاسَ": 5849,
      "فَيَسْ": 5850,
      "وَكَتَبَ": 5851,
      "الشَّفِي": 5852,
      "الزَّا": 5853,
      "الْقَرِي": 5854,
      "ذَكَرٍ": 5855,
      "شُهُو": 5856,
      "الْعِمَا": 5857,
      "الدَّمُ": 5858,
      "ؤْيَةِ": 5859,
      "أَقَلِّ": 5860,
      "كِتَابِي": 5861,
      "قْرَارِ": 5862,
      "يُعْلَمْ": 5863,
      "تَحْلِي": 5864,
      "بَدَلٌ": 5865,
      "تَقْصِي": 5866,
      "سَنَةَ": 5867,
      "بَعْضِهَا": 5868,
      "يَفْعَلَ": 5869,
      "بِقَيْ": 5870,
      "بِقَصْ": 5871,
      "وَكِيعٌ": 5872,
      "حَاجَةِ": 5873,
      "أَصْحَابُ": 5874,
      "عَيْنِهِ": 5875,
      "تَلِفَتْ": 5876,
      "وَلَعَلَّهُ": 5877,
      "مِيَةِ": 5878,
      "وَرَجَعَ": 5879,
      "لِأُمٍّ": 5880,
      "فَظُ": 5881,
      "تَرِ": 5882,
      "يَدُهُ": 5883,
      "نَبَ": 5884,
      "نَسْ": 5885,
      "كَفَّ": 5886,
      "دَأَ": 5887,
      "جَدِّ": 5888,
      "الْمُهْ": 5889,
      "جْرُ": 5890,
      "جْتِهَا": 5891,
      "حُكُو": 5892,
      "أُسْ": 5893,
      "خِنْزِي": 5894,
      "وَلَدًا": 5895,
      "مَالِكُ": 5896,
      "حِينِ": 5897,
      "نَفْلًا": 5898,
      "وِيٍّ": 5899,
      "وِيٌّ": 5900,
      "كَالْمُ": 5901,
      "كُلُّهَا": 5902,
      "أَوَّلِهِ": 5903,
      "ابْنٍ": 5904,
      "أَفْطَرَ": 5905,
      "اخْتِصَا": 5906,
      "كَافِرٌ": 5907,
      "أُجْرَةٍ": 5908,
      "الْأَمْرَ": 5909,
      "السِّلْ": 5910,
      "يُعَدُّ": 5911,
      "دِيَةُ": 5912,
      "جَمْعٌ": 5913,
      "مُدَّةَ": 5914,
      "رِجْلَيْهِ": 5915,
      "مُحْتَرَ": 5916,
      "اجْتِهَا": 5917,
      "جُبَيْرٍ": 5918,
      "وَشَرْطُ": 5919,
      "الْقِيمَةُ": 5920,
      "عَبِي": 5921,
      "مَنَا": 5922,
      "مَتُهُ": 5923,
      "تَبَا": 5924,
      "يَهْ": 5925,
      "رْنَا": 5926,
      "يُرِدْ": 5927,
      "جَرِي": 5928,
      "صَدُّ": 5929,
      "الْمُطَالَ": 5930,
      "تُحْ": 5931,
      "دْتُ": 5932,
      "بَيْتٍ": 5933,
      "الْعَجْ": 5934,
      "الْعَشَرَةِ": 5935,
      "بِالْقِيمَةِ": 5936,
      "فَيَسْتَ": 5937,
      "فَأَحْ": 5938,
      "حُكْمٌ": 5939,
      "الدَّفْعِ": 5940,
      "وُجُوهِ": 5941,
      "وَالْمُغْنِي": 5942,
      "الْخَوْ": 5943,
      "الْعَامِلُ": 5944,
      "مِائَةٌ": 5945,
      "ثُلُثَيْ": 5946,
      "الرَّاجِ": 5947,
      "قَطْعَ": 5948,
      "عَمَلِ": 5949,
      "شَهِدَتْ": 5950,
      "طَرِيقٍ": 5951,
      "نِصْفَيْنِ": 5952,
      "الْبِئْ": 5953,
      "اُسْتُحِقَّ": 5954,
      "الْمُوَكِّلُ": 5955,
      "نَاسِبُ": 5956,
      "تُجْزِئُ": 5957,
      "الْمَرِيضِ": 5958,
      "نَدْبًا": 5959,
      "مُخَالِفٌ": 5960,
      "الْمُؤْمِنِينَ": 5961,
      "اُعْتُبِرَ": 5962,
      "طّ": 5963,
      "لَحَةِ": 5964,
      "أَطْلَ": 5965,
      "بِثُلُثِ": 5966,
      "قَعُ": 5967,
      "قَرِينَ": 5968,
      "مَانٍ": 5969,
      "دَأُ": 5970,
      "رِقِ": 5971,
      "هَاهُنَا": 5972,
      "الْمُقَا": 5973,
      "الْمُكَلَّ": 5974,
      "خْرُجُ": 5975,
      "مَّمَ": 5976,
      "الْأَخِ": 5977,
      "شَرِبَ": 5978,
      "حُكِمَ": 5979,
      "لِيٌّ": 5980,
      "يِّرَ": 5981,
      "وَّلُ": 5982,
      "شَيْبَةَ": 5983,
      "بِالْمَالِ": 5984,
      "بُونَ": 5985,
      "طَانِ": 5986,
      "زُهُ": 5987,
      "عَدَدِ": 5988,
      "يَوْمُ": 5989,
      "وُجُوبِهِ": 5990,
      "يَرْكَ": 5991,
      "الْعَادَةِ": 5992,
      "الضَّمَانُ": 5993,
      "الْفُقَهَا": 5994,
      "فَاسِدًا": 5995,
      "وَأُجِيبَ": 5996,
      "الْمَيِّتُ": 5997,
      "سِتَّةٌ": 5998,
      "حِصَّتَهُ": 5999,
      "الْقُرْآ": 6000,
      "النِّصْفَ": 6001,
      "الْأُجْرَةُ": 6002,
      "التَّقْدِي": 6003,
      "وَصَحَّحَهُ": 6004,
      "بَحْرٌ": 6005,
      "مُسْتَحِقِّ": 6006,
      "الْعِوَضِ": 6007,
      "ارْتِ": 6008,
      "يَمْلِكْ": 6009,
      "إفْ": 6010,
      "أَعَا": 6011,
      "أَظْهَرُ": 6012,
      "وَمُحَمَّدٍ": 6013,
      "الْيُسْرَى": 6014,
      "فَلِأَنَّ": 6015,
      "يَعُودُ": 6016,
      "مِنَّا": 6017,
      "حَتْ": 6018,
      "ذَنَ": 6019,
      "خَصَّ": 6020,
      "دُبُ": 6021,
      "كُمَا": 6022,
      "التَّكْ": 6023,
      "وَيُنْ": 6024,
      "طَافَ": 6025,
      "الْحَالَةِ": 6026,
      "قِيمَتُهَا": 6027,
      "ظْمِ": 6028,
      "يُعْطِيَ": 6029,
      "بَائِعِهِ": 6030,
      "فَلِذَلِكَ": 6031,
      "الْأُجْرَةَ": 6032,
      "يَتْرُ": 6033,
      "نَحْوَهُ": 6034,
      "اجْتِ": 6035,
      "الْمُسْتَأْجِرُ": 6036,
      "صَبِيٍّ": 6037,
      "نَفْسَهَا": 6038,
      "الْوَلِيدِ": 6039,
      "الْقَطْعُ": 6040,
      "اكْتَ": 6041,
      "وَجُ": 6042,
      "الْفَا": 6043,
      "الْخِلَافُ": 6044,
      "عَتُهُ": 6045,
      "مَدَهُ": 6046,
      "تَثْبُتُ": 6047,
      "قَبِلَ": 6048,
      "جَبَ": 6049,
      "جَسَ": 6050,
      "جَرَهُ": 6051,
      "الْمُشْرِ": 6052,
      "كُلْ": 6053,
      "بِيهِ": 6054,
      "رِيدُ": 6055,
      "لِلْقَاضِي": 6056,
      "صِرُ": 6057,
      "يَتَيَ": 6058,
      "خِلَافٌ": 6059,
      "يَحْلِفَ": 6060,
      "الْقَرَا": 6061,
      "مَوْصُو": 6062,
      "أَخْذَ": 6063,
      "أَعْظَ": 6064,
      "عَمْرُو": 6065,
      "خَمْرٍ": 6066,
      "كِتَابَةِ": 6067,
      "الْإِمَامَ": 6068,
      "الْأَرْشِ": 6069,
      "دَيْنَهُ": 6070,
      "أَرْبَعًا": 6071,
      "ثُلُثِهِ": 6072,
      "كُلَّمَا": 6073,
      "يَدْفَعُ": 6074,
      "يُقْضَى": 6075,
      "يُنْظَرُ": 6076,
      "الشُّرُو": 6077,
      "مَيِّتٍ": 6078,
      "الْمَحْلُو": 6079,
      "يُشْبِهُ": 6080,
      "رَقِيقًا": 6081,
      "النَّظَرُ": 6082,
      "الْمَعْرُوفِ": 6083,
      "ضَّةِ": 6084,
      "غًا": 6085,
      "َّيْنِ": 6086,
      "عَلِيِّ": 6087,
      "تَسَ": 6088,
      "تَقُو": 6089,
      "يَدَيْ": 6090,
      "مُلْ": 6091,
      "مُخْ": 6092,
      "مَاتِ": 6093,
      "سَأَلْ": 6094,
      "جَزْ": 6095,
      "لُهُمَا": 6096,
      "خَلَا": 6097,
      "كُنَّا": 6098,
      "وَالْوَصِي": 6099,
      "مَنْدُو": 6100,
      "الْإِطْلَاقِ": 6101,
      "وَأَهْ": 6102,
      "الْحَوَا": 6103,
      "الْحَدَّ": 6104,
      "دَارًا": 6105,
      "وُصُو": 6106,
      "يَتَصَرَّ": 6107,
      "فَأَمَرَ": 6108,
      "لِلسُّ": 6109,
      "مِلْكَهُ": 6110,
      "الْحُرِّيَّةِ": 6111,
      "وَنَقَ": 6112,
      "الْآيَةِ": 6113,
      "السُّجُودِ": 6114,
      "الرُّكْ": 6115,
      "يُنْتَ": 6116,
      "زَمَنٍ": 6117,
      "الْغُسْلُ": 6118,
      "مَكَّنُ": 6119,
      "الطِّ": 6120,
      "يَخْرُجَ": 6121,
      "الْجُمُعَةُ": 6122,
      "مُخْتَلِفَ": 6123,
      "قَضِيَّةُ": 6124,
      "الصَّدَاقِ": 6125,
      "قُبَيْلَ": 6126,
      "وُجِدَتْ": 6127,
      "جٍّ": 6128,
      "أَرَا": 6129,
      "وَغَيْرِ": 6130,
      "هِبِ": 6131,
      "يَطَ": 6132,
      "مُحَا": 6133,
      "حَنْبَ": 6134,
      "عْلَ": 6135,
      "يُقَا": 6136,
      "يُفَرِّ": 6137,
      "كُنَّ": 6138,
      "زَعْ": 6139,
      "بَاتِ": 6140,
      "ذْهَبُ": 6141,
      "سَافَرَ": 6142,
      "الرَّزَّا": 6143,
      "اسْمٌ": 6144,
      "فَأَرْ": 6145,
      "أَحْكَامِ": 6146,
      "يَرْفَعُ": 6147,
      "ثَانِيَ": 6148,
      "عَيْبًا": 6149,
      "مِائَةً": 6150,
      "الْغَنِي": 6151,
      "عِتْقُ": 6152,
      "أَمَتَهُ": 6153,
      "الْفُرْ": 6154,
      "سَهْمٌ": 6155,
      "الْمَرْأَةَ": 6156,
      "الْفِدْ": 6157,
      "يُقَدِّ": 6158,
      "صَرَفَ": 6159,
      "سَقَطَتْ": 6160,
      "الْهَمْ": 6161,
      "ثَابِتٌ": 6162,
      "حُرَّةٌ": 6163,
      "خَبَرٌ": 6164,
      "الْقِصَاصِ": 6165,
      "لُغَةً": 6166,
      "الْمُتَوَلِّي": 6167,
      "كَعْبٍ": 6168,
      "الْهَدْيِ": 6169,
      "مَحْرَمٍ": 6170,
      "يُحَدِّثُ": 6171,
      "وَعِ": 6172,
      "وَيَا": 6173,
      "وَعَدَ": 6174,
      "وَعَدَمُ": 6175,
      "بِطُ": 6176,
      "بِلَتْ": 6177,
      "تَعْتَ": 6178,
      "يَدُ": 6179,
      "بَسُ": 6180,
      "مُسِ": 6181,
      "رِجَا": 6182,
      "جَنِي": 6183,
      "جَرَتْ": 6184,
      "رُبَّمَا": 6185,
      "كَامِلَ": 6186,
      "الْمُعَلَّ": 6187,
      "الْمُلْتَ": 6188,
      "جِدًّا": 6189,
      "حُمِلَ": 6190,
      "فَارَ": 6191,
      "لِلْمَيِّتِ": 6192,
      "صَالَ": 6193,
      "صَادَ": 6194,
      "يَنْعَ": 6195,
      "أَرْشُ": 6196,
      "زِيدُ": 6197,
      "وَقْفٍ": 6198,
      "الْقِرَاءَةِ": 6199,
      "الْخُصُو": 6200,
      "تَرْجِي": 6201,
      "تَأَخَّرَ": 6202,
      "خَيْرًا": 6203,
      "دَخَلَتْ": 6204,
      "يُؤَدِّي": 6205,
      "الْمَقْتُو": 6206,
      "حِصَّةِ": 6207,
      "أَوْلَادِهِ": 6208,
      "الْمُؤَجَّ": 6209,
      "كَرِهَ": 6210,
      "حَاكِمٍ": 6211,
      "سُقُوطِ": 6212,
      "لْزِمُ": 6213,
      "اللَّخْمِيِّ": 6214,
      "الْقَبُولِ": 6215,
      "الزُّهْرِيِّ": 6216,
      "مُبْتَدَأ": 6217,
      "أَخَّرَ": 6218,
      "وَزَادَ": 6219,
      "بِقَبْضِ": 6220,
      "فَكَمَا": 6221,
      "قَيْنِ": 6222,
      "رَكُ": 6223,
      "رَضَا": 6224,
      "بَرَاءَ": 6225,
      "كَغَيْرِهِ": 6226,
      "حَيْنِ": 6227,
      "دَعِ": 6228,
      "رْت": 6229,
      "يُفَ": 6230,
      "قَوْمٌ": 6231,
      "بَاءِ": 6232,
      "هْرًا": 6233,
      "قِيمُ": 6234,
      "أُضْحِي": 6235,
      "فُرُو": 6236,
      "صَافِ": 6237,
      "سَائِي": 6238,
      "وَسَقَطَ": 6239,
      "النَّخْ": 6240,
      "الرَّقِيقِ": 6241,
      "شَاةٍ": 6242,
      "السَّبْ": 6243,
      "عَلَيْكَ": 6244,
      "ثَلَاثَةً": 6245,
      "بِتَسْ": 6246,
      "وَعَكْ": 6247,
      "الْخُفِّ": 6248,
      "تَحْتَهُ": 6249,
      "رَمَى": 6250,
      "مُنْذُ": 6251,
      "الدَّابَّةِ": 6252,
      "نَصِيبُهُ": 6253,
      "يُفْطِ": 6254,
      "أَدْنَى": 6255,
      "خَلْفَ": 6256,
      "زَكَاةَ": 6257,
      "عِلَّةٌ": 6258,
      "الِاخْتِلَا": 6259,
      "الْمِيمِ": 6260,
      "وَقَدَّمَهُ": 6261,
      "يَتَحَقَّقُ": 6262,
      "الْمَوْضِعِ": 6263,
      "فَقَتَلَهُ": 6264,
      "فَأَشْبَهَ": 6265,
      "الرَّزَّاقِ": 6266,
      "شٌ": 6267,
      "أَتَ": 6268,
      "الْقِيمَةَ": 6269,
      "عَظِي": 6270,
      "هِدَ": 6271,
      "بِكَوْنِهِ": 6272,
      "فَبَانَ": 6273,
      "تَفَ": 6274,
      "رَكَا": 6275,
      "رَعُ": 6276,
      "مِرَ": 6277,
      "مُخْتَا": 6278,
      "كَفِّ": 6279,
      "دَرُ": 6280,
      "إِنِّي": 6281,
      "وَاخْتَ": 6282,
      "الْمُسَا": 6283,
      "الْمُقْتَ": 6284,
      "طَوِي": 6285,
      "أُكْرِهَ": 6286,
      "سُنَ": 6287,
      "وَيَمْ": 6288,
      "وَالضَّ": 6289,
      "نَفْيُ": 6290,
      "نَفْسِي": 6291,
      "حُكْمٍ": 6292,
      "أَعْلَى": 6293,
      "أَصْلَ": 6294,
      "غُلَا": 6295,
      "غُرْ": 6296,
      "أَحْكَا": 6297,
      "أَحْدَثَ": 6298,
      "رَّاتٍ": 6299,
      "الرِّضَا": 6300,
      "أَخَذَهَا": 6301,
      "وَالِاسْتِ": 6302,
      "لاَّ": 6303,
      "فَّى": 6304,
      "زَوْجَتُهُ": 6305,
      "كَالصَّ": 6306,
      "قَضَاءُ": 6307,
      "الْمَغْرِبِ": 6308,
      "سَعْدِ": 6309,
      "مُفْرَ": 6310,
      "امْتِنَاعِ": 6311,
      "بِإِسْنَا": 6312,
      "يُبَيِّنْ": 6313,
      "تَعَلَّقُ": 6314,
      "وَرُدَّ": 6315,
      "الْيُمْنَى": 6316,
      "نْيَةِ": 6317,
      "بِالِاسْتِ": 6318,
      "يَعُ": 6319,
      "يَحُ": 6320,
      "يَدٍ": 6321,
      "مُعَلَّ": 6322,
      "مُمَيِّ": 6323,
      "مْكِ": 6324,
      "دَمٍ": 6325,
      "قَوْلٌ": 6326,
      "جَعَلْ": 6327,
      "عِمْرَا": 6328,
      "أَيْنَ": 6329,
      "دَّةٍ": 6330,
      "فَاهُ": 6331,
      "سُكُو": 6332,
      "سُؤَا": 6333,
      "صَابَ": 6334,
      "وَلَيْ": 6335,
      "قَبْضُ": 6336,
      "ظَرْ": 6337,
      "الْقَذْفِ": 6338,
      "نِهِمْ": 6339,
      "مِلْكٌ": 6340,
      "الْعِلَّةِ": 6341,
      "يَرْضَ": 6342,
      "أَحَدُهَا": 6343,
      "يَبْرَأُ": 6344,
      "السُّؤَا": 6345,
      "الْعَادَةُ": 6346,
      "فَّيْنِ": 6347,
      "وَكِّلِ": 6348,
      "يُفْهَمُ": 6349,
      "الْأَجْرِ": 6350,
      "الْيَمِينَ": 6351,
      "الْجَوَازِ": 6352,
      "تَوْكِي": 6353,
      "الْأَحْكَامِ": 6354,
      "ادَّعَاهُ": 6355,
      "الْمَوْقُوفِ": 6356,
      "آلَا": 6357,
      "شًا": 6358,
      "أَخُو": 6359,
      "وَبَعْدَهُ": 6360,
      "بِقِ": 6361,
      "بِبَيْعِ": 6362,
      "فَصَ": 6363,
      "قَتَيْنِ": 6364,
      "دَعُ": 6365,
      "الْمُقْ": 6366,
      "عُمَيْ": 6367,
      "الْمَخْ": 6368,
      "الْأَجِي": 6369,
      "رَّفَ": 6370,
      "جَاوِ": 6371,
      "الْعَزْ": 6372,
      "غَسْلُ": 6373,
      "الْإِبْ": 6374,
      "دَادِ": 6375,
      "يَّةَ": 6376,
      "الرَّفْعِ": 6377,
      "لِلنَّا": 6378,
      "الْقَصْرِ": 6379,
      "كُنْت": 6380,
      "شِرْ": 6381,
      "عَمْرٌ": 6382,
      "سِيُّ": 6383,
      "سَبَبٍ": 6384,
      "الْوَالِ": 6385,
      "وَقْفِ": 6386,
      "يُعْطَى": 6387,
      "أُخْتِ": 6388,
      "كَافِرًا": 6389,
      "سَهْمًا": 6390,
      "رَاجِعْهُ": 6391,
      "يَشْهَدُ": 6392,
      "بِضَمٍّ": 6393,
      "أَبَاهُ": 6394,
      "عَتَقَتْ": 6395,
      "وَجْهَهُ": 6396,
      "رُجُوعَ": 6397,
      "طَلْقَةٍ": 6398,
      "الصُّورَةِ": 6399,
      "الظَّاهِرَ": 6400,
      "يَبْلُغُ": 6401,
      "مَحْمُولٌ": 6402,
      "الْقُدْرَةِ": 6403,
      "بِتَرْكِ": 6404,
      "الْحِنْثِ": 6405,
      "الذ": 6406,
      "الْقَوْلَ": 6407,
      "الْفَاتِ": 6408,
      "عَفَا": 6409,
      "بِالطَّلَاقِ": 6410,
      "مُقِ": 6411,
      "كَمْ": 6412,
      "دَخَلْ": 6413,
      "نِعْ": 6414,
      "هَرُ": 6415,
      "الْمُغِي": 6416,
      "قْنَا": 6417,
      "خَرَ": 6418,
      "فْلِ": 6419,
      "حِفْ": 6420,
      "فِسْ": 6421,
      "دْنَا": 6422,
      "الْأَخَ": 6423,
      "فَاوُ": 6424,
      "سِبُ": 6425,
      "أُمِّي": 6426,
      "وَيَلْزَمُهُ": 6427,
      "ءَةِ": 6428,
      "بِالْبَيِّنَةِ": 6429,
      "السَّرَ": 6430,
      "وَتَأْ": 6431,
      "صِحَّةَ": 6432,
      "الْبَيَانِ": 6433,
      "خِيرِ": 6434,
      "الْمَادَّةِ": 6435,
      "فَتَكُونُ": 6436,
      "وَمَجْ": 6437,
      "اشْتَرَيْ": 6438,
      "يَدْفَعَ": 6439,
      "زَوْجَةٍ": 6440,
      "حَقُّقِ": 6441,
      "عِلْمٍ": 6442,
      "الْعَيْنَ": 6443,
      "الصُّلْ": 6444,
      "الزَّوْجَيْنِ": 6445,
      "الْمَحْجُو": 6446,
      "أَصَابَهُ": 6447,
      "حُجَّةٌ": 6448,
      "حَاكِمِ": 6449,
      "يَأْخُذُهُ": 6450,
      "الْكَافِي": 6451,
      "مُقَابَلَةِ": 6452,
      "شِئْت": 6453,
      "وَأَخْبَرَنَا": 6454,
      "وَيَتَّجِهُ": 6455,
      "عَمْرٌو": 6456,
      "إبَا": 6457,
      "إعْطَا": 6458,
      "ئُو": 6459,
      "اعْتَقَ": 6460,
      "الْكُو": 6461,
      "لِسَ": 6462,
      "لِصَاحِبِهِ": 6463,
      "بِسِ": 6464,
      "فَوَلَدَتْ": 6465,
      "تَخَلَّ": 6466,
      "نَكَحَ": 6467,
      "يُغْ": 6468,
      "يُطَلِّ": 6469,
      "حِفْظِ": 6470,
      "مَّةُ": 6471,
      "زَةٍ": 6472,
      "قَدْرِهِ": 6473,
      "بِالْمِلْكِ": 6474,
      "وَكَأَنَّهُ": 6475,
      "شَرْطًا": 6476,
      "الْفَرَ": 6477,
      "خَمْسُونَ": 6478,
      "الْبَيْهَقِيُّ": 6479,
      "صَاحِبَهُ": 6480,
      "أَلْفِ": 6481,
      "الْخَلْ": 6482,
      "الْحُسَيْنِ": 6483,
      "وَقْتِهَا": 6484,
      "بِتَقْدِي": 6485,
      "أَفْسَ": 6486,
      "مِائَةَ": 6487,
      "اشْتَرَاهَا": 6488,
      "ثَبَتَتْ": 6489,
      "مُعَاوَضَ": 6490,
      "حَرْبٍ": 6491,
      "الْقِيَامِ": 6492,
      "الْمَسْأَلَةَ": 6493,
      "الظَّنِّ": 6494,
      "مُشْتَرٍ": 6495,
      "قَطِعُ": 6496,
      "خَمْسِمِائَةٍ": 6497,
      "الْكَرَاهَةِ": 6498,
      "الْعَبَّاسِ": 6499,
      "وَوَقَعَ": 6500,
      "وَعَدَمِهِ": 6501,
      "بِالْمَوْتِ": 6502,
      "بِفِعْلِهِ": 6503,
      "قَذْ": 6504,
      "يَتَانِ": 6505,
      "يَحِلَّ": 6506,
      "نَفَذَ": 6507,
      "مُرُ": 6508,
      "مُكْرَ": 6509,
      "دَتَيْنِ": 6510,
      "لْتُ": 6511,
      "سَةِ": 6512,
      "قَانِ": 6513,
      "دِرِ": 6514,
      "ثَوَا": 6515,
      "بِينَ": 6516,
      "حَاتِ": 6517,
      "غَصَ": 6518,
      "التَّوَ": 6519,
      "عِيرُ": 6520,
      "الثُّ": 6521,
      "يَحْضُ": 6522,
      "فَأَرَادَ": 6523,
      "لِلثَّا": 6524,
      "وَتَسْ": 6525,
      "الْفَوْ": 6526,
      "الْجَدِّ": 6527,
      "صُوَ": 6528,
      "الْقَاضِيَ": 6529,
      "ثَلَاثٌ": 6530,
      "يَقْبَلُ": 6531,
      "بِعَقْ": 6532,
      "سَبَبًا": 6533,
      "رَكَةِ": 6534,
      "جُزْءًا": 6535,
      "اعْتِكَا": 6536,
      "صَدَقَةٍ": 6537,
      "يُؤْكَلُ": 6538,
      "وَصِيَّةٍ": 6539,
      "أَبْرَأَ": 6540,
      "النِّكَاحَ": 6541,
      "تَمَلُّ": 6542,
      "قَيْسٍ": 6543,
      "اثْنَيْ": 6544,
      "يُوجَدُ": 6545,
      "يُدْرِ": 6546,
      "صَغِيرًا": 6547,
      "حَامِلًا": 6548,
      "مَصْلَحَ": 6549,
      "بُطْلَانِ": 6550,
      "مِصْرَ": 6551,
      "الدِّرْهَ": 6552,
      "الْحَيَاةِ": 6553,
      "مَعْطُوفٌ": 6554,
      "الْآدَمِيِّ": 6555,
      "يَضْمَنُهُ": 6556,
      "الْمَاجِشُونِ": 6557,
      "لَغْ": 6558,
      "أَبٍ": 6559,
      "أَجَّ": 6560,
      "وَعَبْدُ": 6561,
      "الْعِيدِ": 6562,
      "مَلٌ": 6563,
      "مَرَّاتٍ": 6564,
      "بِنَفْسِ": 6565,
      "فَكُلُّ": 6566,
      "يَشُ": 6567,
      "نَجِّ": 6568,
      "مَاءً": 6569,
      "فِيَّةِ": 6570,
      "دَيْهِ": 6571,
      "رِضُ": 6572,
      "وَاعْلَمْ": 6573,
      "رْفُ": 6574,
      "رُءُو": 6575,
      "الْمُحَ": 6576,
      "نَاسِي": 6577,
      "نَاظِ": 6578,
      "شَدِي": 6579,
      "وَيَضْمَنُ": 6580,
      "عِيرٍ": 6581,
      "وَالرُّ": 6582,
      "وَالزَّ": 6583,
      "ضْرَبُ": 6584,
      "لِلشَّا": 6585,
      "السَّيْ": 6586,
      "فَرْضٌ": 6587,
      "أَكْلُهُ": 6588,
      "الطَّهَا": 6589,
      "يَقْطَعُ": 6590,
      "أَشْيَاءَ": 6591,
      "يَوْمَئِذٍ": 6592,
      "الْجَامِ": 6593,
      "يَكْتُ": 6594,
      "يَأْخُذْ": 6595,
      "سَبْعَةٍ": 6596,
      "بَلَغَتْ": 6597,
      "رْتَهِنِ": 6598,
      "رُجُوعِهِ": 6599,
      "الْإِقْرَارُ": 6600,
      "يَعْتَقِ": 6601,
      "أَخَذْ": 6602,
      "طَلْقَةً": 6603,
      "الْعَدَدِ": 6604,
      "الْمُعْجَمَةِ": 6605,
      "خَلِيلٌ": 6606,
      "جَامِعِ": 6607,
      "غَاصِبِ": 6608,
      "يَنْظُرُ": 6609,
      "الرُّكُوعِ": 6610,
      "أَنْبَأَنَا": 6611,
      "إثْ": 6612,
      "أَعَمُّ": 6613,
      "بِطَ": 6614,
      "وَاتٍ": 6615,
      "يُرَ": 6616,
      "قَاهُ": 6617,
      "جَبْ": 6618,
      "جَنَا": 6619,
      "جَدِي": 6620,
      "جَهِلَ": 6621,
      "رُبَ": 6622,
      "صَدْ": 6623,
      "قْبَا": 6624,
      "تُهْ": 6625,
      "رَاقِ": 6626,
      "دْهُ": 6627,
      "جْرَ": 6628,
      "وَالْأَوْلَى": 6629,
      "رِيمُ": 6630,
      "عَاتٍ": 6631,
      "وَأَقْ": 6632,
      "تَاهُ": 6633,
      "خُبْ": 6634,
      "وَيَظْهَرُ": 6635,
      "وُلِدَ": 6636,
      "الْوَضْعِ": 6637,
      "خَانِ": 6638,
      "لُولِ": 6639,
      "فَأَسْ": 6640,
      "شَرْطَ": 6641,
      "انْقَطَعَ": 6642,
      "أَرْسَلَ": 6643,
      "وَفِيمَا": 6644,
      "دَيْنَ": 6645,
      "صَلَاةَ": 6646,
      "قِهِمْ": 6647,
      "ظْهَرَ": 6648,
      "سَنَتَيْنِ": 6649,
      "عَشَرَةٌ": 6650,
      "الْجَاهِ": 6651,
      "وَطْؤُهَا": 6652,
      "وُقُوعِهِ": 6653,
      "آخِرَ": 6654,
      "عِدَّةُ": 6655,
      "ذِكْرِهِ": 6656,
      "دَبَّرْ": 6657,
      "جَهْلِ": 6658,
      "الْجَمْعُ": 6659,
      "سَحْنُونٍ": 6660,
      "أَتْلَفَهُ": 6661,
      "فَتَاوَى": 6662,
      "خُّ": 6663,
      "عَطَ": 6664,
      "لِفِهِ": 6665,
      "لِأَقَلَّ": 6666,
      "مَضَتْ": 6667,
      "بِشُبْهَةٍ": 6668,
      "فَصَلَّى": 6669,
      "فَظَ": 6670,
      "فَكَانَتْ": 6671,
      "مُثَ": 6672,
      "لَالُ": 6673,
      "يُوَكِّ": 6674,
      "لَّةَ": 6675,
      "الْمُنَا": 6676,
      "عُنُ": 6677,
      "تُؤَ": 6678,
      "بُكَيْ": 6679,
      "قِرَا": 6680,
      "مَنْعِ": 6681,
      "رُوهُ": 6682,
      "بِالْقَبْضِ": 6683,
      "فَيَضْمَنُ": 6684,
      "زَاءُ": 6685,
      "مَوْضُو": 6686,
      "أَرْشَ": 6687,
      "عَمْدٍ": 6688,
      "سَبَبَ": 6689,
      "لُّو": 6690,
      "تَوَجَّهُ": 6691,
      "الرِّدَّةِ": 6692,
      "خِيَارُ": 6693,
      "كَسْرٍ": 6694,
      "الرَّجُلَ": 6695,
      "الْهِبَةُ": 6696,
      "خَّرُ": 6697,
      "جَمْعِ": 6698,
      "الْمَأْخُو": 6699,
      "فَلْيُرَاجَعْ": 6700,
      "حُوا": 6701,
      "الْإِنْسَا": 6702,
      "جِهَةٍ": 6703,
      "الْأَقْرَبُ": 6704,
      "الْمُقِرُّ": 6705,
      "الْأَكْثَرِ": 6706,
      "السُّدُسُ": 6707,
      "يُبْطِلُ": 6708,
      "الْمَمْلُو": 6709,
      "نَاسِيًا": 6710,
      "َلَّذِي": 6711,
      "لِوُجُوبِ": 6712,
      "لِمُسْلِمٍ": 6713,
      "لِبَقَاءِ": 6714,
      "مَشَقَّ": 6715,
      "مَسَحَ": 6716,
      "بِوَجْهٍ": 6717,
      "يَيْ": 6718,
      "مُمْتَنِ": 6719,
      "لَاعِ": 6720,
      "حَتّ": 6721,
      "دَرَجَ": 6722,
      "يُسَاوِي": 6723,
      "يُخَيَّرُ": 6724,
      "دِعِ": 6725,
      "خَرَا": 6726,
      "الْمَهْرُ": 6727,
      "فِعِيِّ": 6728,
      "جِدُ": 6729,
      "زَنَى": 6730,
      "رِيدَ": 6731,
      "فَاتَهُ": 6732,
      "عَادَةُ": 6733,
      "الْإِكْ": 6734,
      "دَانَ": 6735,
      "دِيَّةِ": 6736,
      "بِالْعِتْقِ": 6737,
      "فَيَرْجِعُ": 6738,
      "خَافُ": 6739,
      "وَكَسْ": 6740,
      "وَتَقْ": 6741,
      "انْفِ": 6742,
      "أَعْطَى": 6743,
      "سِيرِ": 6744,
      "الْأُضْحِي": 6745,
      "الطَّبَ": 6746,
      "الْمَسْحِ": 6747,
      "يَلْزَمْ": 6748,
      "لِلْمُوَكِّلِ": 6749,
      "بَعْضُهَا": 6750,
      "ظِهَا": 6751,
      "وَحَلَفَ": 6752,
      "فَتْحٌ": 6753,
      "قَدَّمْنَاهُ": 6754,
      "ضَرَرٌ": 6755,
      "الْوَصِيُّ": 6756,
      "صَوْمُ": 6757,
      "الْمَيِّتَ": 6758,
      "نَفَقَةَ": 6759,
      "نَفَقَةُ": 6760,
      "فَالظَّاهِرُ": 6761,
      "أَسْلَمَتْ": 6762,
      "الْمُؤَجِّ": 6763,
      "الْكُفْرِ": 6764,
      "صَيْدٍ": 6765,
      "كَفَّارَةُ": 6766,
      "بْرَاهِيمُ": 6767,
      "آنِفًا": 6768,
      "فَيَحْرُمُ": 6769,
      "يُرْجَ": 6770,
      "مُحْرِمٌ": 6771,
      "يَعْرِفُ": 6772,
      "يَتَأَتَّى": 6773,
      "الْقَبْرِ": 6774,
      "إنْسَانٍ": 6775,
      "الْأَفْضَ": 6776,
      "لِلضَّرُورَةِ": 6777,
      "حَتّى": 6778,
      "اعْلَمْ": 6779,
      "ّةَ": 6780,
      "وَةٌ": 6781,
      "هُرِ": 6782,
      "هِبَ": 6783,
      "بِكْ": 6784,
      "بِمِلْكِ": 6785,
      "فَذَهَبَ": 6786,
      "تَمِي": 6787,
      "تَخْتَ": 6788,
      "تَغَيُّ": 6789,
      "يَقِي": 6790,
      "نَزْ": 6791,
      "بَهْ": 6792,
      "بْحُ": 6793,
      "يُذْ": 6794,
      "يُفَرَّقُ": 6795,
      "عِبِ": 6796,
      "عِرُ": 6797,
      "فِرْ": 6798,
      "الْأَصَا": 6799,
      "قِرْ": 6800,
      "فَافْ": 6801,
      "مَنْعُهُ": 6802,
      "سِمَ": 6803,
      "سِبَ": 6804,
      "سِهَا": 6805,
      "هْدَةِ": 6806,
      "لِلْعَامِلِ": 6807,
      "الثِّ": 6808,
      "وَإِلَيْهِ": 6809,
      "طُلُو": 6810,
      "الِابْنُ": 6811,
      "ذِرِ": 6812,
      "دُّدِ": 6813,
      "السَّلَا": 6814,
      "غَيْرُهَا": 6815,
      "يَعْلَ": 6816,
      "إنَّهَا": 6817,
      "عَيْنُ": 6818,
      "بَلَدِهِ": 6819,
      "أَقْسَا": 6820,
      "فَسَدَتْ": 6821,
      "عَرَفَ": 6822,
      "الْجَارِيَةِ": 6823,
      "بَيَانٌ": 6824,
      "فَعُلِمَ": 6825,
      "مُتَّجِ": 6826,
      "قَائِمٌ": 6827,
      "تَقْدِيرِ": 6828,
      "وَهَبَهُ": 6829,
      "حَاكِمٌ": 6830,
      "طَعَامًا": 6831,
      "التِّرْمِذِيُّ": 6832,
      "اسْتِحْقَاقِ": 6833,
      "مُرَتَّ": 6834,
      "الِاحْتِ": 6835,
      "الْوَلَاءُ": 6836,
      "يَبْلُغْ": 6837,
      "الشَّاهِدِ": 6838,
      "الْوَدِيعَةِ": 6839,
      "الْمَغْصُوبِ": 6840,
      "الذِّمِّيِّ": 6841,
      "حَيَوَانٍ": 6842,
      "الْحَيَوَانِ": 6843,
      "لِانْتِفَاءِ": 6844,
      "وَصَّ": 6845,
      "وَحُكْمُ": 6846,
      "لِسَا": 6847,
      "بِدَارِ": 6848,
      "بِعِوَضٍ": 6849,
      "فَذَكَرَهُ": 6850,
      "تَوَا": 6851,
      "رَثُ": 6852,
      "نَمِ": 6853,
      "بَرَّ": 6854,
      "مُنِعَ": 6855,
      "حَصَ": 6856,
      "يُسْلِ": 6857,
      "يُطَالِ": 6858,
      "جَلَسَ": 6859,
      "صَةَ": 6860,
      "تُفْ": 6861,
      "الْأَبَ": 6862,
      "رَّةُ": 6863,
      "كِلَا": 6864,
      "وَالْقَوْلُ": 6865,
      "نِيَّةَ": 6866,
      "الْإِشَا": 6867,
      "وَأَجَابَ": 6868,
      "وَيَقُولُ": 6869,
      "ضَاعَ": 6870,
      "فَيَلْزَمُ": 6871,
      "يَتَحَ": 6872,
      "يَتَزَوَّجَ": 6873,
      "دُونِ": 6874,
      "لِلنِّ": 6875,
      "الْقَرْضِ": 6876,
      "أَمْكَنَهُ": 6877,
      "نِصْفَهُ": 6878,
      "تَبَرِّ": 6879,
      "الْوَاجِبُ": 6880,
      "الْمُسْتَقْ": 6881,
      "أَرْبَعُ": 6882,
      "أَرْبَعٍ": 6883,
      "يَمِينِ": 6884,
      "رَأْسُ": 6885,
      "الْمَنْفَعَ": 6886,
      "الظِّ": 6887,
      "الْبَائِعَ": 6888,
      "بِحَمْ": 6889,
      "تَسْمِيَ": 6890,
      "وَنَحْوِهِمَا": 6891,
      "جِنَايَةٍ": 6892,
      "جِنَايَتِهِ": 6893,
      "خَالِدٍ": 6894,
      "الْوَطْءُ": 6895,
      "الْقِيَاسِ": 6896,
      "يُحَرِّ": 6897,
      "الْمَسْأَلَتَيْنِ": 6898,
      "يُدْخِ": 6899,
      "لَزِمَتْهُ": 6900,
      "حُرَّةً": 6901,
      "التَّسْلِيمِ": 6902,
      "غَيَّرَ": 6903,
      "الْأَكْلِ": 6904,
      "نَظِيرُ": 6905,
      "حَمَّادُ": 6906,
      "الظَّاهِرِ": 6907,
      "تَطْلُقُ": 6908,
      "لِتَعَذُّرِ": 6909,
      "الْمَوْهُوبِ": 6910,
      "يُعَيِّنْ": 6911,
      "النَّوَوِيُّ": 6912,
      "وَنَقَلَهُ": 6913,
      "الْغَنِيمَةِ": 6914,
      "السَّرَخْ": 6915,
      "قَّةِ": 6916,
      "الْخِلَافَ": 6917,
      "فَصِ": 6918,
      "تَرَا": 6919,
      "تَهُمْ": 6920,
      "يَمُ": 6921,
      "يَصُو": 6922,
      "بَنَا": 6923,
      "هَاتِ": 6924,
      "سَمْ": 6925,
      "حَالًا": 6926,
      "صِنْ": 6927,
      "صَايَا": 6928,
      "وَيَتَ": 6929,
      "وَيَدُلُّ": 6930,
      "وَيَلْزَمُ": 6931,
      "وُضِ": 6932,
      "النَّذْرِ": 6933,
      "فَيَدْ": 6934,
      "خَادِ": 6935,
      "حِيحُ": 6936,
      "وَتَصِحُّ": 6937,
      "مَوْلَا": 6938,
      "شَرْطِهِ": 6939,
      "أَعْنِي": 6940,
      "أَعْمَى": 6941,
      "غُرَمَاءِ": 6942,
      "رَأَتْ": 6943,
      "زَوْجٌ": 6944,
      "قَّفَ": 6945,
      "الْجُلُو": 6946,
      "قِيَاسًا": 6947,
      "يَسْقُطْ": 6948,
      "بَدَلُ": 6949,
      "تَقْرِي": 6950,
      "اعْتِقَا": 6951,
      "الْمُسْلِمُونَ": 6952,
      "يُنْقَ": 6953,
      "مُنْكِ": 6954,
      "لْحَقُ": 6955,
      "الصُّوَرِ": 6956,
      "عُرْفِ": 6957,
      "قَابِلُهُ": 6958,
      "رَفْعِ": 6959,
      "الْكِفَا": 6960,
      "مُحْتَا": 6961,
      "وَزْنِ": 6962,
      "بَطْنِ": 6963,
      "دَابَّةٍ": 6964,
      "السُّلْطَانُ": 6965,
      "الْمَأْذُونِ": 6966,
      "يَعْقُوبَ": 6967,
      "الْمُتَأَخِّرِينَ": 6968,
      "الْحِنْطَةِ": 6969,
      "الْكُفَّارِ": 6970,
      "مُتَّجِهٌ": 6971,
      "َانِ": 6972,
      "الّ": 6973,
      "الرّ": 6974,
      "أَسْتَ": 6975,
      "أَيَّ": 6976,
      "أَدَاءِ": 6977,
      "الْمِثْ": 6978,
      "عَتِي": 6979,
      "عَطِي": 6980,
      "لِحَ": 6981,
      "بِشَ": 6982,
      "بِغَ": 6983,
      "فَقُ": 6984,
      "رَدِّهِ": 6985,
      "مِرْ": 6986,
      "نَصُّ": 6987,
      "كَرِي": 6988,
      "رِضَاهُ": 6989,
      "لَّتْ": 6990,
      "جَنَى": 6991,
      "الْمُحَا": 6992,
      "عُقُو": 6993,
      "بَارُ": 6994,
      "حُذَيْ": 6995,
      "وَلَاؤُهُ": 6996,
      "كُونِ": 6997,
      "وَلَدُهُ": 6998,
      "بِالْقَ": 6999,
      "الرَّدَّ": 7000,
      "فَإِنَّهُمْ": 7001,
      "شَاسٍ": 7002,
      "وَكَسْرِ": 7003,
      "الشَّمْسُ": 7004,
      "يَعْلَمَ": 7005,
      "اسْتِرْ": 7006,
      "حَيْضٍ": 7007,
      "صُهُ": 7008,
      "مَسْكَ": 7009,
      "وُجُودُ": 7010,
      "كَوْنَهُ": 7011,
      "الْمُصَلِّي": 7012,
      "مِائَتَيْنِ": 7013,
      "زَوَّجُ": 7014,
      "عِبَارَةِ": 7015,
      "قَطْعُ": 7016,
      "وَأَنْكَرَ": 7017,
      "يُصَرِّ": 7018,
      "الْفِقْ": 7019,
      "يُّنِ": 7020,
      "جَائِزَةٌ": 7021,
      "الْوَجْهُ": 7022,
      "ذِكْرُهُ": 7023,
      "بِعَيْنِهَا": 7024,
      "يُونُسُ": 7025,
      "وَيَأْخُذُ": 7026,
      "وَأَصْحَا": 7027,
      "الْبَدَنِ": 7028,
      "يُكَفِّ": 7029,
      "الِانْتِفَاعِ": 7030,
      "يَتَعَرَّ": 7031,
      "التَّرْتِي": 7032,
      "فَتَأَمَّلْهُ": 7033,
      "لَعَلَّهُ": 7034,
      "لَفْظٍ": 7035,
      "الْحَقِيقَةِ": 7036,
      "بَدْرٍ": 7037,
      "الْمُطْلَقِ": 7038,
      "عَفَّانُ": 7039,
      "الْجَنَابَةِ": 7040,
      "إنَا": 7041,
      "شِهِ": 7042,
      "أَعَادَ": 7043,
      "وَأَيْضًا": 7044,
      "وَدَخَلَ": 7045,
      "نْتَ": 7046,
      "لِطَ": 7047,
      "لِزَوْجَتِهِ": 7048,
      "فَرَاجِعْهُ": 7049,
      "بَرِي": 7050,
      "بَنُو": 7051,
      "مُوَافِ": 7052,
      "لَاتِ": 7053,
      "عْلِ": 7054,
      "سَةٍ": 7055,
      "هَلُ": 7056,
      "الْأَمَةَ": 7057,
      "حُسَيْ": 7058,
      "أُجِيبَ": 7059,
      "فُقَرَاءِ": 7060,
      "لِلْخَبَرِ": 7061,
      "الْإِبَا": 7062,
      "وَأَكْثَ": 7063,
      "تَاعَ": 7064,
      "مِينِ": 7065,
      "الْوَجِيزِ": 7066,
      "وَالرَّا": 7067,
      "طُرُ": 7068,
      "الصَّبِيُّ": 7069,
      "زُهَيْ": 7070,
      "مَعْمَ": 7071,
      "يَأْتِ": 7072,
      "عِهِمْ": 7073,
      "أَقْوَا": 7074,
      "الْخُلَاصَةِ": 7075,
      "الرَّاءِ": 7076,
      "عَشَرَةً": 7077,
      "زِيَادَةً": 7078,
      "بَيَانُهُ": 7079,
      "جِنْسٍ": 7080,
      "وَاجِبًا": 7081,
      "يُرِيدَ": 7082,
      "الْحَمْلُ": 7083,
      "فَسْخُ": 7084,
      "إمَامِهِ": 7085,
      "ضَرُورَةٍ": 7086,
      "الْمَقْصُودُ": 7087,
      "نَصْرَا": 7088,
      "يُوَافِ": 7089,
      "أَعْطَاهُ": 7090,
      "وَمَفْهُومُ": 7091,
      "الْبِئْرِ": 7092,
      "وَفَرَّقَ": 7093,
      "لِقُ": 7094,
      "لِوَاحِدٍ": 7095,
      "لِلَّذِي": 7096,
      "لِعَبْدِهِ": 7097,
      "بِشَهَادَةِ": 7098,
      "مَاءٌ": 7099,
      "جَةُ": 7100,
      "جَوَّ": 7101,
      "رَارِ": 7102,
      "وَالْأَوْجَهُ": 7103,
      "سِمَا": 7104,
      "الْعَدُوِّ": 7105,
      "التَّبَرُّ": 7106,
      "تَاعُ": 7107,
      "وَسَلَّ": 7108,
      "صِيرَ": 7109,
      "أَحَبُّ": 7110,
      "الرَّضَاعِ": 7111,
      "غْرِ": 7112,
      "وَكَيْ": 7113,
      "الْحَاوِي": 7114,
      "ثَلَاثُونَ": 7115,
      "بِمَالِهِ": 7116,
      "أَبُوهُ": 7117,
      "الْأُمَّ": 7118,
      "الْمَسْجِدَ": 7119,
      "لِيَةِ": 7120,
      "بِلَادِ": 7121,
      "عَيَّنَهُ": 7122,
      "قِيَاسِ": 7123,
      "عِبَارَتُهُ": 7124,
      "الْبُلُو": 7125,
      "بَّانَ": 7126,
      "تَفْوِي": 7127,
      "سَمِعْت": 7128,
      "وَارِثٌ": 7129,
      "يَشْهَدَ": 7130,
      "سِتَّةَ": 7131,
      "الْمَبِيعُ": 7132,
      "أَجْنَبِيِّ": 7133,
      "الْجَوَابِ": 7134,
      "اسْتِحْسَا": 7135,
      "وَفَارَقَ": 7136,
      "ذِمِّيًّا": 7137,
      "الْمَقْصُودَ": 7138,
      "الرَّمْيِ": 7139,
      "سَحْنُونٌ": 7140,
      "لِلصَّلَاةِ": 7141,
      "اللَّامِ": 7142,
      "مُوسِرًا": 7143,
      "بِالشُّفْعَةِ": 7144,
      "مَكَانَهُ": 7145,
      "حِنْطَةٍ": 7146,
      "الْآمِرِ": 7147,
      "الصُّلْحُ": 7148,
      "لَبِسَ": 7149,
      "وَصَرَّحَ": 7150,
      "لِعُذْرٍ": 7151,
      "مَسُّ": 7152,
      "بِأَحَدِهِمَا": 7153,
      "مُخَالَفَ": 7154,
      "كَلَهُ": 7155,
      "فِيُّ": 7156,
      "وَاهَا": 7157,
      "يُعَا": 7158,
      "عِكْرِ": 7159,
      "نُقِلَ": 7160,
      "شْرَ": 7161,
      "بِيَّ": 7162,
      "وَالْخُ": 7163,
      "فُرْ": 7164,
      "التَّبْ": 7165,
      "خُيِّرَ": 7166,
      "السّ": 7167,
      "ضْهُ": 7168,
      "ابْنُهُ": 7169,
      "الْعِدَّةُ": 7170,
      "كِيلِ": 7171,
      "فَرْضًا": 7172,
      "جَّهَ": 7173,
      "وَرَدَّ": 7174,
      "الْكَثِي": 7175,
      "جِيءُ": 7176,
      "كُلُّهُمْ": 7177,
      "سَبَبِ": 7178,
      "يَمِينًا": 7179,
      "الْفَرْضَ": 7180,
      "الْغُرَ": 7181,
      "وَارِثِهِ": 7182,
      "الْفُقَرَاءِ": 7183,
      "فَاسِدٍ": 7184,
      "بْرَاءُ": 7185,
      "جِهَتِهِ": 7186,
      "شُعْبَةَ": 7187,
      "جَانِبِ": 7188,
      "وَقَضِيَّتُهُ": 7189,
      "مْتَنِعُ": 7190,
      "إنْسَانٌ": 7191,
      "إسْلَامِهِ": 7192,
      "مُسْتَحِق": 7193,
      "الْحُرْمَةِ": 7194,
      "ذَكَّرَ": 7195,
      "يُتَوَهَّ": 7196,
      "بِحَضْرَةِ": 7197,
      "رَآهُ": 7198,
      "عِمْرَانَ": 7199,
      "ىٍّ": 7200,
      "وَحَا": 7201,
      "هُرُ": 7202,
      "الْمِنْ": 7203,
      "بِعِتْقِهِ": 7204,
      "يَنْدَ": 7205,
      "نَجَّ": 7206,
      "مُتَقَوِّ": 7207,
      "قَارَ": 7208,
      "الْمُحْتَ": 7209,
      "خَفِي": 7210,
      "تُعْتَبَرُ": 7211,
      "حِنْ": 7212,
      "زَلْ": 7213,
      "وَأَبْ": 7214,
      "التَّحَلُّ": 7215,
      "نْدَفَعَ": 7216,
      "ضْرِبْ": 7217,
      "تِيمِ": 7218,
      "ضَافَةِ": 7219,
      "خَانْ": 7220,
      "شَاةً": 7221,
      "ظَهْ": 7222,
      "زْدَ": 7223,
      "فَأَقَرَّ": 7224,
      "زِيدَ": 7225,
      "أَصْلُهُ": 7226,
      "الْقَاعِ": 7227,
      "الزَّيْلَ": 7228,
      "أَهْلِي": 7229,
      "أَجْرَ": 7230,
      "الطَّوَافِ": 7231,
      "جَازَتْ": 7232,
      "اُحْ": 7233,
      "الْقِرَاضِ": 7234,
      "صَحَّحَهُ": 7235,
      "مِائَةُ": 7236,
      "بَدَأَ": 7237,
      "مُتَأَ": 7238,
      "قَدَّرُ": 7239,
      "صَحِيحَةٌ": 7240,
      "وَأَنْتَ": 7241,
      "وَارِثُهُ": 7242,
      "وَطْئِهَا": 7243,
      "سَهْوًا": 7244,
      "شَهِدَا": 7245,
      "سَعِيدُ": 7246,
      "الْمُتَبَا": 7247,
      "مَأْخُو": 7248,
      "الْوَاقِفُ": 7249,
      "اخْتِيَارِهِ": 7250,
      "ادَّعَتْ": 7251,
      "صَادِقٌ": 7252,
      "أَجِي": 7253,
      "أَثْنَا": 7254,
      "الْكُلَّ": 7255,
      "لِأَبِيهِ": 7256,
      "مَجَا": 7257,
      "هِبَةٍ": 7258,
      "بِآ": 7259,
      "بِقُرْ": 7260,
      "فَصَلَ": 7261,
      "تَسَا": 7262,
      "يَلْبَ": 7263,
      "مُكَاتَبَ": 7264,
      "حَهَا": 7265,
      "دَعَ": 7266,
      "لْهُ": 7267,
      "وَاحْ": 7268,
      "يُقِرَّ": 7269,
      "هَلَا": 7270,
      "جَنْ": 7271,
      "كَالِ": 7272,
      "الْمُوَا": 7273,
      "لِلْحَالِ": 7274,
      "جَارِهِ": 7275,
      "صِرَ": 7276,
      "غَسَلَ": 7277,
      "الْحَلِفِ": 7278,
      "وَلَدَهُ": 7279,
      "سَاءَ": 7280,
      "وَاللَّهِ": 7281,
      "شَامِلٌ": 7282,
      "الشَّمْسِ": 7283,
      "الْبَزَّا": 7284,
      "انْقَضَتْ": 7285,
      "يَنْوِيَ": 7286,
      "شَرَةٍ": 7287,
      "الْمُسْتَحِ": 7288,
      "بِتَعْ": 7289,
      "بَقِيَتْ": 7290,
      "الْبُرْ": 7291,
      "يُجْعَلُ": 7292,
      "يَجْرِي": 7293,
      "وَصِيِّ": 7294,
      "ثَمَنَهُ": 7295,
      "شَهْوَةٍ": 7296,
      "شَرِيكٌ": 7297,
      "عُذْرٌ": 7298,
      "الْجُمُعَةَ": 7299,
      "مَهْرَ": 7300,
      "لِكَوْنِهَا": 7301,
      "قَضَاءَ": 7302,
      "كَفَّارَةِ": 7303,
      "وَلَدَتْهُ": 7304,
      "وَالثَّالِ": 7305,
      "اسْتِيفَاءِ": 7306,
      "بَعِيدٌ": 7307,
      "التَّصَرُّفُ": 7308,
      "فَسَادِ": 7309,
      "النَّفَقَةُ": 7310,
      "قَلِيلًا": 7311,
      "الْمُقَرُّ": 7312,
      "مَصْدَ": 7313,
      "اخْتَارَهُ": 7314,
      "بِأَمْرِهِ": 7315,
      "الِاسْتِحْقَاقِ": 7316,
      "عَطَاءٍ": 7317,
      "دَائِعِ": 7318,
      "الْكَفَالَةِ": 7319,
      "عَشَرَةَ": 7320,
      "إشَارَةٌ": 7321,
      "سِيَّمَا": 7322,
      "جْتِهَادِ": 7323,
      "إنِّي": 7324,
      "مًّا": 7325,
      "الْمِنْهَا": 7326,
      "لِدَفْعِ": 7327,
      "بِدِرْهَمٍ": 7328,
      "بِأَقَلَّ": 7329,
      "فَحِينَئِذٍ": 7330,
      "فَدَخَلَ": 7331,
      "قَدِي": 7332,
      "بَتَيْنِ": 7333,
      "بْرَةِ": 7334,
      "سَلِمَ": 7335,
      "رْتُ": 7336,
      "تْرُ": 7337,
      "فِتْ": 7338,
      "حُدَّ": 7339,
      "كِلُ": 7340,
      "عَارِي": 7341,
      "أُمُو": 7342,
      "جَارُ": 7343,
      "إنْكَا": 7344,
      "السُّو": 7345,
      "رُوضِ": 7346,
      "بَيْنَهَا": 7347,
      "صِيلُ": 7348,
      "الرَّحِ": 7349,
      "فَأَعْ": 7350,
      "فَأَفْ": 7351,
      "لِلذَّ": 7352,
      "وِيلِ": 7353,
      "الْكَبِيرِ": 7354,
      "فَيُحْ": 7355,
      "يَقْضِيَ": 7356,
      "أَشْهَدَ": 7357,
      "الِابْ": 7358,
      "الْغَزَا": 7359,
      "تَنْفَ": 7360,
      "أَهْلِهَا": 7361,
      "الْخُلْ": 7362,
      "الشُّفْ": 7363,
      "كَالتَّ": 7364,
      "وَأُمُّ": 7365,
      "شَهْرَيْنِ": 7366,
      "نَافِعِ": 7367,
      "حَاجَةٍ": 7368,
      "وُضُوءِ": 7369,
      "النُّقْصَا": 7370,
      "حَلَّتْ": 7371,
      "يَصْدُقُ": 7372,
      "عَائِشَةُ": 7373,
      "صَيْدًا": 7374,
      "النَّفْيِ": 7375,
      "الْوُضُوءُ": 7376,
      "مَحَلَّهُ": 7377,
      "الِاخْتِيَا": 7378,
      "الْمُدَبَّرِ": 7379,
      "يُؤَثِّرُ": 7380,
      "رَحِمَهُمَا": 7381,
      "بِقَصْدِ": 7382,
      "وَصَّى": 7383,
      "وَلِيَ": 7384,
      "وَفَتْحِ": 7385,
      "الْمِيرَاثِ": 7386,
      "بِالشَّرْطِ": 7387,
      "فَكَسْرٍ": 7388,
      "تَحِي": 7389,
      "تَيَمُّ": 7390,
      "قَسْ": 7391,
      "يَصْرِ": 7392,
      "مِقْ": 7393,
      "مُلَا": 7394,
      "مُخَيَّ": 7395,
      "مُسَافِ": 7396,
      "كَلِمَ": 7397,
      "إِلَيْ": 7398,
      "عْمَلُ": 7399,
      "وَانُ": 7400,
      "سَمَاعِ": 7401,
      "جَزَّ": 7402,
      "الْمُشَا": 7403,
      "قَوْلُهُمْ": 7404,
      "تُسْتَ": 7405,
      "جِرَا": 7406,
      "زَةَ": 7407,
      "ضَيَا": 7408,
      "ضَمُّ": 7409,
      "وَالْخَ": 7410,
      "سِلَ": 7411,
      "هْلَكَ": 7412,
      "حَاقُ": 7413,
      "لِلْمَرْأَةِ": 7414,
      "التَّصْ": 7415,
      "وَلَنَا": 7416,
      "كَمَالُ": 7417,
      "لِّمَ": 7418,
      "رُورِ": 7419,
      "خَامِ": 7420,
      "شَادِ": 7421,
      "النِّي": 7422,
      "زَادَتْ": 7423,
      "وَتَنْ": 7424,
      "الْبَرِّ": 7425,
      "اسْتِخْ": 7426,
      "لَفَهُ": 7427,
      "أَجْزَا": 7428,
      "سَبَبُ": 7429,
      "الْوَارِ": 7430,
      "بِتَحْ": 7431,
      "يُعْطِي": 7432,
      "كُلَّهَا": 7433,
      "امْرَأَتُهُ": 7434,
      "فَلَعَلَّ": 7435,
      "الشَّرْحِ": 7436,
      "عَقْدٌ": 7437,
      "ضَرَبَهُ": 7438,
      "زَمَنَ": 7439,
      "الْخَانِيَّةِ": 7440,
      "الْعَيْنُ": 7441,
      "الْأَعْلَى": 7442,
      "النُّسَخِ": 7443,
      "بَيْعُهَا": 7444,
      "أَبَوَيْهِ": 7445,
      "الْعِلْمُ": 7446,
      "يَنْتَقِلُ": 7447,
      "اسْتَأْجَرَهُ": 7448,
      "مَلَكَهَا": 7449,
      "ضَمَانِهِ": 7450,
      "فَيَأْخُذُ": 7451,
      "مَعْرِفَةُ": 7452,
      "الْمُحْرِمِ": 7453,
      "عُضْوٍ": 7454,
      "تَحَقَّقَ": 7455,
      "بِّي": 7456,
      "صِيَةِ": 7457,
      "الْوُ": 7458,
      "لِصِحَّةِ": 7459,
      "بِصِحَّةِ": 7460,
      "تَصِيرُ": 7461,
      "تَقْتَضِي": 7462,
      "قَدِّ": 7463,
      "يَلْ": 7464,
      "مُشْتَرِي": 7465,
      "حَرِي": 7466,
      "ذَكَا": 7467,
      "الْمَيْتَ": 7468,
      "الْأَثْ": 7469,
      "نِيَّتِهِ": 7470,
      "الْعَطْ": 7471,
      "ذْنِ": 7472,
      "ضِمْ": 7473,
      "الْإِلْ": 7474,
      "التَّطَوُّ": 7475,
      "الْحَلْ": 7476,
      "صَاعٍ": 7477,
      "أَحَقَّ": 7478,
      "دُودِ": 7479,
      "يَحْدُ": 7480,
      "يَنْعَقِدُ": 7481,
      "خِيرَةِ": 7482,
      "يَقْبَلْ": 7483,
      "وَالْمُعْتَ": 7484,
      "كِتَابُ": 7485,
      "وَإِنَّهُ": 7486,
      "وَقْتِهِ": 7487,
      "تَنْقَ": 7488,
      "حَدِيثٌ": 7489,
      "تَرْكُهُ": 7490,
      "عَشَرَةٍ": 7491,
      "عَقْدَ": 7492,
      "الْوَصِيِّ": 7493,
      "نَصِيبَ": 7494,
      "وَطْءُ": 7495,
      "صَوْمُهُ": 7496,
      "دِيَةَ": 7497,
      "مُدَّةٍ": 7498,
      "فَائِدَةُ": 7499,
      "عِدَّتِهَا": 7500,
      "قَضَاءً": 7501,
      "الْأَسْوَدِ": 7502,
      "مِسْكِي": 7503,
      "ثِنْتَيْنِ": 7504,
      "الْقُرْآنَ": 7505,
      "بِعَقْدٍ": 7506,
      "آمِ": 7507,
      "وّ": 7508,
      "الرِّي": 7509,
      "وَحَدَّثَنَا": 7510,
      "وَصُو": 7511,
      "وَقَالَا": 7512,
      "نْدِي": 7513,
      "هِرَ": 7514,
      "بِوَلَدٍ": 7515,
      "بِثَمَنِهِ": 7516,
      "تَقِ": 7517,
      "مِعُ": 7518,
      "نَفَّ": 7519,
      "رِقَ": 7520,
      "رِفُ": 7521,
      "سَةُ": 7522,
      "يُزَا": 7523,
      "قَالِ": 7524,
      "أَوْجُ": 7525,
      "كَاهُ": 7526,
      "ذَى": 7527,
      "نَامَ": 7528,
      "شَوْ": 7529,
      "قِطَ": 7530,
      "هْنِ": 7531,
      "فُسِخَ": 7532,
      "جَارَةٍ": 7533,
      "التَّصَدُّ": 7534,
      "سَامَةَ": 7535,
      "الْوَزْ": 7536,
      "وَإِسْ": 7537,
      "فَيَقْ": 7538,
      "وَيُفْ": 7539,
      "ذُكُو": 7540,
      "انْفَسَخَ": 7541,
      "أَرْبَا": 7542,
      "شُرَيْ": 7543,
      "الْكَذِ": 7544,
      "الدِّي": 7545,
      "أَرْبَعَ": 7546,
      "الْغَلَّةِ": 7547,
      "مَانِعٌ": 7548,
      "أَقْرَ": 7549,
      "الْخُنْثَى": 7550,
      "فُوتُ": 7551,
      "نَقْدًا": 7552,
      "سْلَامِهِ": 7553,
      "صَدَقَ": 7554,
      "لِأَبَوَيْنِ": 7555,
      "الْمَشْيِ": 7556,
      "رَدَّهَا": 7557,
      "دِيَةٌ": 7558,
      "أَدْخَلَ": 7559,
      "تَبْلُ": 7560,
      "بَعْضَهَا": 7561,
      "الرَّهْنَ": 7562,
      "قَبُولُهُ": 7563,
      "تَقْدِيمُ": 7564,
      "عَدْلًا": 7565,
      "اشْتِ": 7566,
      "الْمُضَارَبَةِ": 7567,
      "الزِّيَادَةُ": 7568,
      "ثَمَانِيَةٌ": 7569,
      "الْمَقْصُودِ": 7570,
      "الْجَوْهَ": 7571,
      "وَيَبْقَى": 7572,
      "تُسْمَعُ": 7573,
      "وَاخْتَارَهُ": 7574,
      "وَأَقَرَّهُ": 7575,
      "مُطَرِّ": 7576,
      "بِعَرَفَةَ": 7577,
      "اغْتَ": 7578,
      "عج": 7579,
      "لَكُ": 7580,
      "أَخٍ": 7581,
      "وَصِ": 7582,
      "وَصَلَّى": 7583,
      "عَثَ": 7584,
      "لِعَا": 7585,
      "لِغَرَ": 7586,
      "مَجَّا": 7587,
      "بِالنَّظَرِ": 7588,
      "وْلِ": 7589,
      "يَعُو": 7590,
      "بَهِ": 7591,
      "بَتَّ": 7592,
      "بَغْ": 7593,
      "كَتْ": 7594,
      "مْكَانِ": 7595,
      "بْحَ": 7596,
      "عْيِ": 7597,
      "وَاقْتَ": 7598,
      "سَحُ": 7599,
      "يُهْ": 7600,
      "قَاصِ": 7601,
      "قَاءَ": 7602,
      "رُهُمْ": 7603,
      "ذَبْحِ": 7604,
      "الْمُصْحَ": 7605,
      "فِقْ": 7606,
      "بِيَا": 7607,
      "وَالْغَ": 7608,
      "لِلْوَكِيلِ": 7609,
      "الْعَمَلَ": 7610,
      "ذْكُ": 7611,
      "وَأَدْ": 7612,
      "إِنَّهُ": 7613,
      "وَيَغْ": 7614,
      "بِالْمَاءِ": 7615,
      "عَبْدِي": 7616,
      "فَيَمْ": 7617,
      "شَاءُ": 7618,
      "الْفَرِي": 7619,
      "أَحْسَنَ": 7620,
      "أَجْرِ": 7621,
      "فَيُقْ": 7622,
      "مُسْتَقْ": 7623,
      "يَبْعُدُ": 7624,
      "لِيَكُونَ": 7625,
      "اُخْتُلِفَ": 7626,
      "قَتْلُهُ": 7627,
      "وَعَتَقَ": 7628,
      "الضَّمَانَ": 7629,
      "بَيِّنَةَ": 7630,
      "حُرِّيَّةِ": 7631,
      "مَرْدُو": 7632,
      "دَفْعًا": 7633,
      "مَكَّنَ": 7634,
      "بِشَرْطِهِ": 7635,
      "عِدَّةَ": 7636,
      "مَشْهُو": 7637,
      "تَكْبِي": 7638,
      "كَفَّارَةَ": 7639,
      "اقْتَضَاهُ": 7640,
      "يُفِيدُهُ": 7641,
      "التَّقْيِي": 7642,
      "مَفْهُومُ": 7643,
      "الْأَصْحَابُ": 7644,
      "ارْتَدَّ": 7645,
      "طَاهِرٍ": 7646,
      "الْفَاسِدِ": 7647,
      "مَكَان": 7648,
      "مَغْصُو": 7649,
      "الْتَزَمَ": 7650,
      "الْمَانِعِ": 7651,
      "الْمُشْتَرَكِ": 7652,
      "الْفُقَهَاءِ": 7653,
      "هَّا": 7654,
      "أَثْنَاءِ": 7655,
      "وَتْ": 7656,
      "وَبُ": 7657,
      "وَظَاهِرٌ": 7658,
      "هِبَةُ": 7659,
      "بِمِائَةٍ": 7660,
      "رَطْ": 7661,
      "يَطُو": 7662,
      "مُلَ": 7663,
      "مُكْ": 7664,
      "مُلْتَ": 7665,
      "كَفَ": 7666,
      "كَسَرَ": 7667,
      "وَاتَّ": 7668,
      "أَوْقَ": 7669,
      "صَنَعَ": 7670,
      "الْمُعْتَا": 7671,
      "نُسُ": 7672,
      "رَابَ": 7673,
      "رَاغِ": 7674,
      "غَيْبَتِهِ": 7675,
      "زَمْ": 7676,
      "وَالْحَالُ": 7677,
      "عَامَ": 7678,
      "نِيَّتُهُ": 7679,
      "لِلْمَالِكِ": 7680,
      "قَوْلِهِمَا": 7681,
      "شَائِ": 7682,
      "دُّهُ": 7683,
      "كَالْبَيْعِ": 7684,
      "كِتَابٍ": 7685,
      "الِاثْنَ": 7686,
      "الْمُسْتَحِقُّ": 7687,
      "الْجُرْ": 7688,
      "ثُلُثَا": 7689,
      "نَقْلِ": 7690,
      "تَصَوُّ": 7691,
      "فَسَقَطَ": 7692,
      "زِيَادَةٌ": 7693,
      "الْأَمْوَالِ": 7694,
      "حَمْلُهُ": 7695,
      "طْلَاقُ": 7696,
      "نَصِيبُ": 7697,
      "عَمَلٍ": 7698,
      "سَهْمَانِ": 7699,
      "الْمَشْرُو": 7700,
      "فَوْقَهُ": 7701,
      "اعْتِبَارُ": 7702,
      "خَلْفَهُ": 7703,
      "عَلِىُّ": 7704,
      "عِوَضًا": 7705,
      "الْإِنْسَانِ": 7706,
      "فَضْلِ": 7707,
      "الثَّالِثَةُ": 7708,
      "دَاوُدَ": 7709,
      "الْمُفْلِسِ": 7710,
      "مُحْصَ": 7711,
      "ثَمَانِيَةَ": 7712,
      "ثَمَانِيَةٍ": 7713,
      "تَدْبِي": 7714,
      "الزَّكَاةُ": 7715,
      "الْمُتَقَدِّمِ": 7716,
      "اللَّخْمِيُّ": 7717,
      "طُهْرٍ": 7718,
      "لِلرَّجُلِ": 7719,
      "حَظِّ": 7720,
      "أَنْفُسِهِمْ": 7721,
      "يَسْجُدُ": 7722,
      "مَجَّانًا": 7723,
      "».": 7724,
      "وِيَةِ": 7725,
      "لَدَ": 7726,
      "لَئِ": 7727,
      "وَقِ": 7728,
      "وَصُ": 7729,
      "وَبِمَا": 7730,
      "وَقَالَهُ": 7731,
      "وَرَاءَ": 7732,
      "وَكُرِهَ": 7733,
      "الْوَاحِدَ": 7734,
      "الْأَوْجَ": 7735,
      "بِالصَّ": 7736,
      "بِبَعْضِ": 7737,
      "فَهَلَكَ": 7738,
      "تَطَ": 7739,
      "مَاجَهْ": 7740,
      "وَاسْتُ": 7741,
      "هَلَّ": 7742,
      "جَيِّ": 7743,
      "صَرُ": 7744,
      "الْمُدَّةُ": 7745,
      "قْت": 7746,
      "يْهِمَا": 7747,
      "ثَمُ": 7748,
      "ثُمُ": 7749,
      "زَعَمَ": 7750,
      "حُهَا": 7751,
      "وَالْحَا": 7752,
      "فَادَ": 7753,
      "صِلَ": 7754,
      "صَاعِ": 7755,
      "مِيٌّ": 7756,
      "دِيّ": 7757,
      "النَّصِّ": 7758,
      "صِيرِ": 7759,
      "وَيُجَابُ": 7760,
      "ظَرَ": 7761,
      "لِلشُّ": 7762,
      "الْحَادِ": 7763,
      "الزَّمَانِ": 7764,
      "لِلْمُرْتَهِنِ": 7765,
      "لِيَأْ": 7766,
      "طَلَبِهِ": 7767,
      "الِاتِّ": 7768,
      "الْوَاجِبَ": 7769,
      "وَنَصَّ": 7770,
      "قَتْهُ": 7771,
      "أَقْرَبِ": 7772,
      "يَدْرِي": 7773,
      "أَمَةٌ": 7774,
      "جُزْءٌ": 7775,
      "ذُوا": 7776,
      "الرُّؤْيَةِ": 7777,
      "طُولِ": 7778,
      "ثَوْبِهِ": 7779,
      "لِأَجَ": 7780,
      "مُعَيَّنَةٍ": 7781,
      "حِصَّةُ": 7782,
      "مَهْرٍ": 7783,
      "تَخْرُجُ": 7784,
      "الْقِسْمَةُ": 7785,
      "يَشْتَرِطْ": 7786,
      "تَرَتَّ": 7787,
      "نَزَلَتْ": 7788,
      "الثَّالِثِ": 7789,
      "يَبِيعَ": 7790,
      "مُؤْمِ": 7791,
      "مَفْهُومَ": 7792,
      "الِانْتِفَا": 7793,
      "وَلِيٍّ": 7794,
      "الْإِرْثِ": 7795,
      "إحْرَامِهِ": 7796,
      "تَيَمَّمَ": 7797,
      "عِيَالِهِ": 7798,
      "التَّمَتُّ": 7799,
      "الْمُحْرِمُ": 7800,
      "فَرَاغِ": 7801,
      "مُوَرِّ": 7802,
      "مُجَرَّدُ": 7803,
      "أَشَدُّ": 7804,
      "مُعْسِرًا": 7805,
      "الْمُؤَلِّفِ": 7806,
      "الْوَصْفِ": 7807,
      "تت": 7808,
      "عب": 7809,
      "وَيُو": 7810,
      "الْهَا": 7811,
      "عَقَ": 7812,
      "عَقَا": 7813,
      "عَشَرَةِ": 7814,
      "لِبَعْضِ": 7815,
      "بِالضَّ": 7816,
      "بِالْعَيْنِ": 7817,
      "فَهْ": 7818,
      "وْمٍ": 7819,
      "قَفُ": 7820,
      "قَتِي": 7821,
      "مِنُ": 7822,
      "مُفَ": 7823,
      "مُدَّعِي": 7824,
      "مُتَبَرِّ": 7825,
      "كَفَى": 7826,
      "لَاقِ": 7827,
      "بْرَأَ": 7828,
      "وَاتُ": 7829,
      "يُؤَا": 7830,
      "قَانِيٌّ": 7831,
      "عُتْ": 7832,
      "فِقَ": 7833,
      "بُعِ": 7834,
      "الْأَيَّا": 7835,
      "كْتُ": 7836,
      "ضَةٌ": 7837,
      "وَالْأَقْرَبُ": 7838,
      "فَاحِ": 7839,
      "سِرَ": 7840,
      "حَالِهَا": 7841,
      "لِلْقِ": 7842,
      "لِلْمُوصَى": 7843,
      "ضْمَ": 7844,
      "مِثْلٍ": 7845,
      "فَأَعْتَقَ": 7846,
      "الْبَطْ": 7847,
      "الْبَدَائِعِ": 7848,
      "شُعَيْبٍ": 7849,
      "زِيِّ": 7850,
      "أَصْلِهَا": 7851,
      "خِيفَ": 7852,
      "جِيلِ": 7853,
      "الطَّلَبِ": 7854,
      "أَسْبَا": 7855,
      "يَسْتَلْزِمُ": 7856,
      "الْحُرُّ": 7857,
      "وَلَيْسَتْ": 7858,
      "الْقِتَالِ": 7859,
      "الْمَعْلُو": 7860,
      "يُقْسَمُ": 7861,
      "ضَرَرَ": 7862,
      "الشَّيْخَانِ": 7863,
      "رِوَايَتَانِ": 7864,
      "عَامِرِ": 7865,
      "مَوْضِعِهِ": 7866,
      "يُفْسِ": 7867,
      "وَكِيلِهِ": 7868,
      "أَيَّامِ": 7869,
      "يُقَيِّ": 7870,
      "صِفَةٌ": 7871,
      "تَكْفِي": 7872,
      "نَهَارًا": 7873,
      "عُبَيْدَةَ": 7874,
      "الرُّجُوعَ": 7875,
      "الْمُحَرَّمِ": 7876,
      "ذِمِّيٌّ": 7877,
      "صَرِفُ": 7878,
      "وَلِيِّهِ": 7879,
      "مُقَدَّمٌ": 7880,
      "مَنْزِلَةَ": 7881,
      "طَاهِرٌ": 7882,
      "وَلِيُّهُ": 7883,
      "لِعُمُومِ": 7884,
      "وَاخْتَارَ": 7885,
      "أُمَيَّةَ": 7886,
      "يَظُنُّ": 7887,
      "اصْ": 7888,
      "بّ": 7889,
      "لَهِي": 7890,
      "أَعْتَ": 7891,
      "وَوَ": 7892,
      "وَتِهِ": 7893,
      "مَشَايِ": 7894,
      "بِعِتْقِ": 7895,
      "بِثَمَنٍ": 7896,
      "قَمْ": 7897,
      "رَضِي": 7898,
      "يَزْ": 7899,
      "نَوَاهُ": 7900,
      "مُمْكِ": 7901,
      "يُمَ": 7902,
      "يُكَلَّ": 7903,
      "ذَاتِ": 7904,
      "فَاطِ": 7905,
      "مَنْقُو": 7906,
      "أُحْ": 7907,
      "غَدًا": 7908,
      "التَّشَهُّ": 7909,
      "الصَّوَابُ": 7910,
      "وَتَوَ": 7911,
      "رَجَعَتْ": 7912,
      "أَمْرَ": 7913,
      "يَأْذَنْ": 7914,
      "الدَّوَا": 7915,
      "مَسْجِدِ": 7916,
      "مُسْتَحَب": 7917,
      "الْمَسْحُ": 7918,
      "ابْتَ": 7919,
      "قَتْلٍ": 7920,
      "بِّرُ": 7921,
      "الرِّجَالِ": 7922,
      "يَخْلُ": 7923,
      "تَحْرُمُ": 7924,
      "مُتَفَرِّ": 7925,
      "يِيرِ": 7926,
      "تَرْكَ": 7927,
      "الْمَذْكُورَ": 7928,
      "بِالتَّعْ": 7929,
      "رَكْعَ": 7930,
      "الْمُنْذِرِ": 7931,
      "الْوَكِيلَ": 7932,
      "عَوْفٍ": 7933,
      "بِسَبَبِهِ": 7934,
      "صِفَةُ": 7935,
      "صِفَةً": 7936,
      "مَنَعَهُ": 7937,
      "تَصْدِي": 7938,
      "مُرَادُهُ": 7939,
      "الْإِقْرَارَ": 7940,
      "شَاهِدٌ": 7941,
      "لِلِاسْتِ": 7942,
      "صَبِيًّا": 7943,
      "الْقَوْمِ": 7944,
      "تَيَقَّ": 7945,
      "يُضَمِّ": 7946,
      "خَاصٌّ": 7947,
      "مُقَيَّدٌ": 7948,
      "مُنْفَرِدًا": 7949,
      "خَمْسُمِائَةٍ": 7950,
      "إِلَيَّ": 7951,
      "وَسَلَّم": 7952,
      "إبْرَاهِيمَ": 7953,
      "ئَيْنِ": 7954,
      "طَيْنِ": 7955,
      "وَثَبَتَ": 7956,
      "الْجِي": 7957,
      "الْأَوْلَادِ": 7958,
      "عَلِيُّ": 7959,
      "لِوَرَثَتِهِ": 7960,
      "مَجُوسِي": 7961,
      "بِرَقَبَتِهِ": 7962,
      "فَلِأَنَّهُ": 7963,
      "تَفَرَّ": 7964,
      "سَفَرٍ": 7965,
      "سَأَلَهُ": 7966,
      "لَّتِي": 7967,
      "أَوْلِيَا": 7968,
      "جَدَّ": 7969,
      "صَنْ": 7970,
      "ذَاتِهِ": 7971,
      "نُدِبَ": 7972,
      "عَلَيْهِنَّ": 7973,
      "مَّلُ": 7974,
      "شَقَّةِ": 7975,
      "حَاضَتْ": 7976,
      "قِيِّ": 7977,
      "أُصُو": 7978,
      "وَلَاءُ": 7979,
      "وَأَكْ": 7980,
      "الْحَبْسِ": 7981,
      "إِنَّمَا": 7982,
      "وَّلَ": 7983,
      "زِمَهُ": 7984,
      "خَاتَ": 7985,
      "يَتَكَلَّ": 7986,
      "مَعْصُو": 7987,
      "الْبَصْ": 7988,
      "انْفَرَ": 7989,
      "فَقَةِ": 7990,
      "قُلْتَ": 7991,
      "مُحَمّ": 7992,
      "غَارِ": 7993,
      "أَصْلٌ": 7994,
      "الزَّوَالِ": 7995,
      "مَسْحِ": 7996,
      "الْكَفِّ": 7997,
      "فَيُجْ": 7998,
      "ُّونِ": 7999,
      "كُلِّيَّةِ": 8000,
      "الرِّعَايَةِ": 8001,
      "أَقْرَبَ": 8002,
      "تَحْرِيمِ": 8003,
      "الضَّرَ": 8004,
      "نَقْصِ": 8005,
      "مَجْلِسِ": 8006,
      "خَيْبَرَ": 8007,
      "الْغَالِبِ": 8008,
      "يُصَلِّ": 8009,
      "رِوَايَةُ": 8010,
      "طْلَانِ": 8011,
      "يُؤْمَرُ": 8012,
      "مُتَعَدِّ": 8013,
      "نْثَيَيْنِ": 8014,
      "الذَّخِيرَةِ": 8015,
      "جَمْعٍ": 8016,
      "تَمْنَعُ": 8017,
      "مُعْتَمَ": 8018,
      "حَجُّ": 8019,
      "مَعْلُومًا": 8020,
      "تَزَوَّجَتْ": 8021,
      "حُرْمَةَ": 8022,
      "مُرَاعَا": 8023,
      "يَتَوَضَّ": 8024,
      "جُمْلَةُ": 8025,
      "وَضْعُ": 8026,
      "يَتْبَ": 8027,
      "الْأَجَلُ": 8028,
      "ضَمَّنَ": 8029,
      "تَكَلَّمَ": 8030,
      "أَثْبَتَ": 8031,
      "مَسْجِدًا": 8032,
      "غَائِبٍ": 8033,
      "يَرُدَّهُ": 8034,
      "يَتَقَدَّ": 8035,
      "الْحَائِطِ": 8036,
      "عَاصِمٍ": 8037,
      "عِبْرَةَ": 8038,
      "الْكَسْبِ": 8039,
      "النَّجَاسَةِ": 8040,
      "الْمُهْمَلَةِ": 8041,
      "حُذَيْفَةَ": 8042,
      "أَجَابَ": 8043,
      "وَخَالَفَ": 8044,
      "الْبِنَا": 8045,
      "عَدُ": 8046,
      "عَصْ": 8047,
      "مَرِضَ": 8048,
      "بِصِفَةٍ": 8049,
      "فَوَجَدَ": 8050,
      "فَأَنْتَ": 8051,
      "يَحُجَّ": 8052,
      "نَبَّهَ": 8053,
      "بَشِي": 8054,
      "فِيِّ": 8055,
      "فِيدُ": 8056,
      "حَى": 8057,
      "بْت": 8058,
      "سَمَّا": 8059,
      "رْهُ": 8060,
      "يُلْ": 8061,
      "يُغْنِي": 8062,
      "قَوْلًا": 8063,
      "كَاذِ": 8064,
      "الْمُسَافِ": 8065,
      "الْمُنَاسِبُ": 8066,
      "تُخْ": 8067,
      "تُؤْ": 8068,
      "الْمَكَانِ": 8069,
      "فْظَ": 8070,
      "كُلُ": 8071,
      "مَّلَ": 8072,
      "قُضِيَ": 8073,
      "قِبَ": 8074,
      "وَالْوَ": 8075,
      "فَاءَ": 8076,
      "عَاجِ": 8077,
      "سِرِ": 8078,
      "نِيّ": 8079,
      "فُرِضَ": 8080,
      "الْعَصَ": 8081,
      "وَأَلْ": 8082,
      "التَّلْ": 8083,
      "زِمٍ": 8084,
      "عِيٌّ": 8085,
      "يَّدُ": 8086,
      "يَتَهُ": 8087,
      "يَتَبَيَّ": 8088,
      "ضِيحِ": 8089,
      "تَعَرَّ": 8090,
      "اسْتِبْرَا": 8091,
      "ئَةٍ": 8092,
      "أَصْلٍ": 8093,
      "كَلَامٍ": 8094,
      "الْمَادَّةَ": 8095,
      "فَالْإِ": 8096,
      "الْبَالِ": 8097,
      "الْبَاطِ": 8098,
      "لّا": 8099,
      "طَلَبُ": 8100,
      "رَكَعَ": 8101,
      "عَيْنٌ": 8102,
      "الْآيَةَ": 8103,
      "مُطْلَقِ": 8104,
      "الْمَنْقُو": 8105,
      "لَيْلَةٍ": 8106,
      "عِتْقَ": 8107,
      "طِيُّ": 8108,
      "رِوَايَةٌ": 8109,
      "سَبْقِ": 8110,
      "الثُّلُثَيْنِ": 8111,
      "الْمَقْبُو": 8112,
      "هَدْيٌ": 8113,
      "التَّعْرِي": 8114,
      "النُّسُ": 8115,
      "أَوْلَادُ": 8116,
      "بَقَائِهِ": 8117,
      "بَانَتْ": 8118,
      "الْخِدْ": 8119,
      "بِدُونِهِ": 8120,
      "الْخَمْرَ": 8121,
      "الصَّوْمُ": 8122,
      "الْأَلْفُ": 8123,
      "يَبِيعُ": 8124,
      "الْفَتْوَى": 8125,
      "قَضِيَّتُهُ": 8126,
      "الْإِرْشَادِ": 8127,
      "الْعِبَارَةِ": 8128,
      "مَحَلُّهُ": 8129,
      "الْأَكْثَرُ": 8130,
      "الْوَلَاءِ": 8131,
      "يَسَارٍ": 8132,
      "الْمُتَعَلِّ": 8133,
      "لَحِقَهُ": 8134,
      "اللَّحْمِ": 8135,
      "تَرِكَتِهِ": 8136,
      "وَيُؤَيِّدُهُ": 8137,
      "الْمُغِيرَةِ": 8138,
      "تَمِيمٍ": 8139,
      "لَبُ": 8140,
      "أَخَا": 8141,
      "وَشَهِدَ": 8142,
      "نْبُ": 8143,
      "عَدُو": 8144,
      "لِزَوَالِ": 8145,
      "قَذَفَ": 8146,
      "رَتِهَا": 8147,
      "يَزْرَ": 8148,
      "مِنِ": 8149,
      "نَفَ": 8150,
      "مُخَ": 8151,
      "نَّهُ": 8152,
      "حَيَّ": 8153,
      "يُبَ": 8154,
      "يُجَابُ": 8155,
      "رُمْ": 8156,
      "عِصْ": 8157,
      "الْمُزَ": 8158,
      "رَابٍ": 8159,
      "جِئْ": 8160,
      "وَالْمَجْ": 8161,
      "فَاضِ": 8162,
      "الْعَرْ": 8163,
      "كُولِ": 8164,
      "عِيَّ": 8165,
      "فَيَجْ": 8166,
      "ضُهَا": 8167,
      "يَاهُ": 8168,
      "يَانَ": 8169,
      "نَفْسٍ": 8170,
      "مُوهُ": 8171,
      "لُوِّ": 8172,
      "الصَّبْ": 8173,
      "مَعْدُو": 8174,
      "زَالَتْ": 8175,
      "لِلطَّ": 8176,
      "وَتَكُونُ": 8177,
      "تَعَدَّى": 8178,
      "وَقَطَعَ": 8179,
      "الْبَاجِي": 8180,
      "الْعُضْ": 8181,
      "الْعُرْفِ": 8182,
      "الِاكْتِ": 8183,
      "الْوَاوِ": 8184,
      "الْعَامِ": 8185,
      "رَأْيِهِ": 8186,
      "لَيْلَى": 8187,
      "يَضْرِبُ": 8188,
      "الْفَرْضُ": 8189,
      "زِيَادَةُ": 8190,
      "وَأُمٍّ": 8191,
      "الْهِبَةَ": 8192,
      "دِيَةٍ": 8193,
      "فَوْرًا": 8194,
      "الْأَعْيَانِ": 8195,
      "وَرِثَهُ": 8196,
      "نَوْعٍ": 8197,
      "اثْنَتَيْنِ": 8198,
      "أَتْقَانِيٌّ": 8199,
      "حُجَّةً": 8200,
      "قَرِيبٍ": 8201,
      "يَشْتَرِ": 8202,
      "صَغِيرٍ": 8203,
      "خَارِجَ": 8204,
      "وَوَجْهُهُ": 8205,
      "عَكْسِهِ": 8206,
      "وَلَدُهَا": 8207,
      "الْمُقَرِّ": 8208,
      "الشَّرِيكِ": 8209,
      "دَابَّةً": 8210,
      "كَعْبِ": 8211,
      "الْقَضَاءَ": 8212,
      "جِبْرِي": 8213,
      "قُدْرَتِهِ": 8214,
      "مُرْسَ": 8215,
      "الزَّائِدِ": 8216,
      "الْقَاتِلِ": 8217,
      "الشَّخْصِ": 8218,
      "الْحِرْزِ": 8219,
      "تَعَمَّدَ": 8220,
      "وُضِعَ": 8221,
      "الرَّحِمِ": 8222,
      "لَهِيعَةَ": 8223,
      "وَشُ": 8224,
      "الْغَيْ": 8225,
      "مَطْلُو": 8226,
      "هِبُ": 8227,
      "بِحَالٍ": 8228,
      "فَوَقَعَ": 8229,
      "تَتِمَّ": 8230,
      "يَهُو": 8231,
      "يَزُولُ": 8232,
      "حَجِّ": 8233,
      "سَقْ": 8234,
      "يُجِي": 8235,
      "رُجَ": 8236,
      "ذَبَحَ": 8237,
      "صَةٌ": 8238,
      "عُمُو": 8239,
      "الْمَعَا": 8240,
      "رَاجُ": 8241,
      "حِمَا": 8242,
      "شَبَّ": 8243,
      "شَهْرِ": 8244,
      "قُبُ": 8245,
      "طَوْ": 8246,
      "رِيَّ": 8247,
      "بَيْعًا": 8248,
      "عَامُ": 8249,
      "لِلْبَيْعِ": 8250,
      "لِلْوَارِثِ": 8251,
      "جَازِ": 8252,
      "قَدْرًا": 8253,
      "زِلْ": 8254,
      "وَالتِّ": 8255,
      "وَيُفَرَّقُ": 8256,
      "حِيَا": 8257,
      "يَتَرَتَّ": 8258,
      "طَابِ": 8259,
      "وَتَفْ": 8260,
      "الْفَيْ": 8261,
      "أَرْسَ": 8262,
      "تَعَدَّدَ": 8263,
      "الْحَالِفُ": 8264,
      "رَجُلَانِ": 8265,
      "شِبْ": 8266,
      "شِعْ": 8267,
      "أَكْلِهِ": 8268,
      "الْكَرْ": 8269,
      "يَقْرَأُ": 8270,
      "الِاشْ": 8271,
      "ذَكَرَهَا": 8272,
      "رَّاحِ": 8273,
      "وَنَوَى": 8274,
      "تَنْفِي": 8275,
      "وَعَلِمَ": 8276,
      "الْقُنْيَةِ": 8277,
      "شِيرُ": 8278,
      "تَرْكِهِ": 8279,
      "الشَّرْطَ": 8280,
      "يَفْعَلُهُ": 8281,
      "الْفَرْجِ": 8282,
      "وَطْئِهِ": 8283,
      "يُحْسِ": 8284,
      "يَثْبُتَ": 8285,
      "سَعِيدٌ": 8286,
      "مَقْطُو": 8287,
      "عَلِيًّا": 8288,
      "الْوَطْءَ": 8289,
      "يُحَلِّ": 8290,
      "قَيْسِ": 8291,
      "عَدْلٌ": 8292,
      "الْأَنْصَا": 8293,
      "قَرِيبٌ": 8294,
      "الْمُضَارِبُ": 8295,
      "يَأْكُلَ": 8296,
      "وَرُبَّمَا": 8297,
      "الْقَتْلُ": 8298,
      "النَّفَقَةَ": 8299,
      "شِرَائِهِ": 8300,
      "مُحْرِمًا": 8301,
      "إيَّاهَا": 8302,
      "إمْكَانِ": 8303,
      "الطُّهْرِ": 8304,
      "السُّلْطَانِ": 8305,
      "الْكَفِيلِ": 8306,
      "مُسْتَأْجِرِ": 8307,
      "كُتُبِ": 8308,
      "الثَّمَرَةِ": 8309,
      "مُبْتَدَأٌ": 8310,
      "زِّيَا": 8311,
      "ظَّ": 8312,
      "فٍّ": 8313,
      "أَتَيْ": 8314,
      "وَتُهُ": 8315,
      "لِأَجْ": 8316,
      "بِالسِّ": 8317,
      "بِرّ": 8318,
      "بِثَمَنِ": 8319,
      "فَظَهَرَ": 8320,
      "تَقُولُ": 8321,
      "يَسُ": 8322,
      "يَدَّعِيَ": 8323,
      "بَتِهَا": 8324,
      "مُضْطَ": 8325,
      "مُجْتَهِ": 8326,
      "مَاهُ": 8327,
      "مْتُ": 8328,
      "حَفَرَ": 8329,
      "جَلْ": 8330,
      "جَرَةِ": 8331,
      "صَةُ": 8332,
      "الْمُعْتِقِ": 8333,
      "دِرُ": 8334,
      "تُقَ": 8335,
      "حِبَّانَ": 8336,
      "شْرٍ": 8337,
      "ضَمِّ": 8338,
      "وَالْحُكْمُ": 8339,
      "مَنْهَ": 8340,
      "عَارَ": 8341,
      "أُمّ": 8342,
      "أُرِيدَ": 8343,
      "لِيَّةٌ": 8344,
      "دَاهُ": 8345,
      "دَاعِ": 8346,
      "وَلَقَدْ": 8347,
      "الْوَحْ": 8348,
      "الْوَهَّا": 8349,
      "وَالنَّا": 8350,
      "وَالزَّوْ": 8351,
      "حَدَّثَنِى": 8352,
      "عْتَقُ": 8353,
      "ظَائِ": 8354,
      "خَمْسٍ": 8355,
      "قَوْلُهَا": 8356,
      "لِمَصْ": 8357,
      "عُوهُ": 8358,
      "طَلَبَهُ": 8359,
      "بِتَأْ": 8360,
      "أَرْبَعَةً": 8361,
      "صَلَاةً": 8362,
      "قَتْلُ": 8363,
      "بِيَقِي": 8364,
      "الْخُلْعِ": 8365,
      "الْمَنْصُو": 8366,
      "الْوَقْفَ": 8367,
      "نِيَةُ": 8368,
      "يَفْسُدُ": 8369,
      "الْفَرْعِ": 8370,
      "وَضَةِ": 8371,
      "مُنْقَطِ": 8372,
      "إحْضَا": 8373,
      "كَسْبِ": 8374,
      "سَبْعَةَ": 8375,
      "احْتَاجَ": 8376,
      "السَّائِ": 8377,
      "الْكِتَابَةُ": 8378,
      "يُؤَخِّ": 8379,
      "يُؤَدِّيَ": 8380,
      "حْرَامِ": 8381,
      "يَغْرَمُ": 8382,
      "قَبُولُ": 8383,
      "الْأَنْوَارِ": 8384,
      "عُبَيْدُ": 8385,
      "وَضْعِهِ": 8386,
      "كُّنِ": 8387,
      "طَلْقَةٌ": 8388,
      "يَأْخُذَهُ": 8389,
      "غْتَفَرُ": 8390,
      "يُبَاحُ": 8391,
      "وَغَيْرُهُمْ": 8392,
      "لْحِقَ": 8393,
      "تْلَافِ": 8394,
      "جَاهِلًا": 8395,
      "وَسِت": 8396,
      "مَعْرُوفٌ": 8397,
      "الدِّيَةَ": 8398,
      "مُدَبَّرًا": 8399,
      "التَّعْلِيقِ": 8400,
      "الْمَرْهُونِ": 8401,
      "عِكْرِمَةَ": 8402,
      "اغْ": 8403,
      "ضَيْنِ": 8404,
      "عَذَا": 8405,
      "مَرَهُ": 8406,
      "بِعُمْرَةٍ": 8407,
      "فَخَ": 8408,
      "تَلْ": 8409,
      "قَرَ": 8410,
      "رَبْ": 8411,
      "كَةَ": 8412,
      "كَةُ": 8413,
      "لَاعَ": 8414,
      "حَيِّ": 8415,
      "هَابُ": 8416,
      "يُنْدَبُ": 8417,
      "جَحْ": 8418,
      "الْمُكَاتَبَ": 8419,
      "الْمَلَائِ": 8420,
      "صْرَا": 8421,
      "وَالْعُ": 8422,
      "وَالْجَوَابُ": 8423,
      "حَادِي": 8424,
      "طْرَ": 8425,
      "جَاءِ": 8426,
      "الْعَدَا": 8427,
      "صَابِ": 8428,
      "بِالْفَتْحِ": 8429,
      "بِالْبِنَاءِ": 8430,
      "بِالْقَتْلِ": 8431,
      "ضَائِهِ": 8432,
      "وَيُرَدُّ": 8433,
      "وَيُعْتَبَرُ": 8434,
      "يَحْمِلُ": 8435,
      "لِلدَّ": 8436,
      "اسْتِثْنَا": 8437,
      "الْجَنِي": 8438,
      "الْحَالُ": 8439,
      "كَلَامٌ": 8440,
      "قِيمَتَهَا": 8441,
      "أَكْرَهَ": 8442,
      "فَتَلِفَ": 8443,
      "عُولُ": 8444,
      "سَبَبٌ": 8445,
      "بِإِحْ": 8446,
      "قْرَارِهِ": 8447,
      "زَيْدًا": 8448,
      "لِفَوَاتِ": 8449,
      "سَيِّدُ": 8450,
      "كَالنَّ": 8451,
      "زِيَادٍ": 8452,
      "الْجَانِ": 8453,
      "كَاتَبِ": 8454,
      "يَجِدُ": 8455,
      "طَلَاقًا": 8456,
      "بَاطِلَةٌ": 8457,
      "بَعْضَهُمْ": 8458,
      "وَحْدَهَا": 8459,
      "الْقِيَاسُ": 8460,
      "حُرْمَةُ": 8461,
      "الثَّوْبُ": 8462,
      "يُشْكِلُ": 8463,
      "الْأَرْبَعِ": 8464,
      "ضَمَّنُ": 8465,
      "شِرَاءُ": 8466,
      "سُلَيْمَانُ": 8467,
      "الْجَمَاعَةُ": 8468,
      "التُّهْ": 8469,
      "وَمَحَلُّهُ": 8470,
      "قُطِعَتْ": 8471,
      "نِصَابًا": 8472,
      "رَشِيدِيٌّ": 8473,
      "كُرْدِيٌّ": 8474,
      "وَيَدْخُلُ": 8475,
      "الْقَاتِلُ": 8476,
      "أُعْطِيَ": 8477,
      "اُشْتُرِطَ": 8478,
      "مُوَكِّلِهِ": 8479,
      "أَعْظَمُ": 8480,
      "وَعَكْسُهُ": 8481,
      "الْكِفَايَةِ": 8482,
      "الْبُلُوغِ": 8483,
      "إجَازَ": 8484,
      "لَقَ": 8485,
      "لَتُهُ": 8486,
      "أَوَا": 8487,
      "وَكُ": 8488,
      "وَفَرْ": 8489,
      "عَمِ": 8490,
      "يْفِ": 8491,
      "بِمَالِ": 8492,
      "بِأُجْرَةٍ": 8493,
      "بِالْمَعْرُوفِ": 8494,
      "فَنُ": 8495,
      "فَعِنْدَ": 8496,
      "فَدَلَّ": 8497,
      "يَطَأَ": 8498,
      "بَذَ": 8499,
      "مَامِهِ": 8500,
      "مَامُهُ": 8501,
      "كَفَلَ": 8502,
      "فِينَ": 8503,
      "دَمًا": 8504,
      "رِعِ": 8505,
      "لُحُو": 8506,
      "مِنْك": 8507,
      "الْمُتَعَا": 8508,
      "عُمُ": 8509,
      "الْأَقَلُّ": 8510,
      "بَاهِ": 8511,
      "ضَةٍ": 8512,
      "بِيّ": 8513,
      "بِيعِ": 8514,
      "بِيعَتْ": 8515,
      "كِبَ": 8516,
      "عَامٍ": 8517,
      "حَاقِ": 8518,
      "لَّاهُ": 8519,
      "سُلْطَا": 8520,
      "دَامِ": 8521,
      "عِيدُ": 8522,
      "بِالْكَسْرِ": 8523,
      "ضَاءَ": 8524,
      "الصَّفْ": 8525,
      "فَأَقَامَ": 8526,
      "ذَكَرٌ": 8527,
      "الْبَذْرِ": 8528,
      "الْفَسَادِ": 8529,
      "يَعْمَلَ": 8530,
      "تَعَدِّي": 8531,
      "وَقَالَتْ": 8532,
      "بِمَاءٍ": 8533,
      "أَهْلًا": 8534,
      "الْكَيْ": 8535,
      "النِّسْ": 8536,
      "جِيَّةِ": 8537,
      "الْمَوْتُ": 8538,
      "أَسْمَعْ": 8539,
      "كَوْنَ": 8540,
      "سَّرَ": 8541,
      "الْعَقْلِ": 8542,
      "وَقْفًا": 8543,
      "ابْتِدَاءِ": 8544,
      "الْعَاصِ": 8545,
      "تَنْتَ": 8546,
      "الشُّفْعَةِ": 8547,
      "يَكْتَ": 8548,
      "دَفْعُهُ": 8549,
      "تَسْلِيمِ": 8550,
      "صَوْمَ": 8551,
      "التَّعْلِيلِ": 8552,
      "الْأَجْرُ": 8553,
      "وَالْمَشْ": 8554,
      "بَقَاءُ": 8555,
      "رُدَّتْ": 8556,
      "الْمِسْ": 8557,
      "نِصْفُهَا": 8558,
      "اتَّفَقَ": 8559,
      "يُشْعِرُ": 8560,
      "نَسَبٍ": 8561,
      "مُحَرَّمٍ": 8562,
      "مُضَارَ": 8563,
      "الْخُرُوجُ": 8564,
      "وَالدَّلِيلُ": 8565,
      "اسْتَوْفَى": 8566,
      "حَرْبِيٍّ": 8567,
      "كِنَايَةٌ": 8568,
      "الشَّعْرِ": 8569,
      "لِحَاجَةٍ": 8570,
      "عَمِّهِ": 8571,
      "إِسْمَاعِيلُ": 8572,
      "نُسْخَةٍ": 8573,
      "الْمَقْتُولِ": 8574,
      "سَائِيُّ": 8575,
      "لِلنَّاسِ": 8576,
      "حِفْظ": 8577,
      "اعْتَقَدَ": 8578,
      "لِلثَّانِي": 8579,
      "الْجَامِعِ": 8580,
      "إرَا": 8581,
      "إعْتَا": 8582,
      "لَبَّ": 8583,
      "أَتَمَّ": 8584,
      "وَمِمَّا": 8585,
      "لِمِ": 8586,
      "لِشُ": 8587,
      "مَعَا": 8588,
      "هِرِ": 8589,
      "فَهُمَا": 8590,
      "فَرِيضَ": 8591,
      "قَرُبَ": 8592,
      "يَرَاهُ": 8593,
      "بَدَا": 8594,
      "مُوَافَقَ": 8595,
      "مَائِ": 8596,
      "حَوَا": 8597,
      "رِق": 8598,
      "بْطُلُ": 8599,
      "رْثِ": 8600,
      "قَاءُ": 8601,
      "هَتْ": 8602,
      "الْمُسَيِّ": 8603,
      "خَلَهُ": 8604,
      "الْمَشَايِ": 8605,
      "رَارًا": 8606,
      "بُيُو": 8607,
      "شَقِي": 8608,
      "زَةُ": 8609,
      "صْبَ": 8610,
      "صْلَاحِ": 8611,
      "رِيّ": 8612,
      "رِيحِ": 8613,
      "رِيَّةُ": 8614,
      "مَنْسُو": 8615,
      "جُعْ": 8616,
      "نِيًّا": 8617,
      "أُحُ": 8618,
      "لِيًا": 8619,
      "غَهُ": 8620,
      "سُهَا": 8621,
      "الْإِقَامَةِ": 8622,
      "التَّلَفِ": 8623,
      "بِالْعُمْرَةِ": 8624,
      "فَيَثْبُتُ": 8625,
      "زَاءَ": 8626,
      "الْقَوَدُ": 8627,
      "شِدَّةِ": 8628,
      "اسْتَعْ": 8629,
      "فَيُعْ": 8630,
      "فَيُقَالُ": 8631,
      "الصَّائِ": 8632,
      "لِيَحْ": 8633,
      "بِغَيْرِهَا": 8634,
      "دُونَهَا": 8635,
      "الرِّجْ": 8636,
      "فِهِمْ": 8637,
      "يَخْطُ": 8638,
      "ثُلُثُهُ": 8639,
      "لَيْلَةَ": 8640,
      "ضُوا": 8641,
      "الضَّرْ": 8642,
      "بَدَلِهِ": 8643,
      "الْمَعْصِيَةِ": 8644,
      "تَرْتِي": 8645,
      "ضَرَرًا": 8646,
      "رِكَةُ": 8647,
      "يُصَدِّ": 8648,
      "عِلْمُ": 8649,
      "يَقُولُونَ": 8650,
      "تَأْثِي": 8651,
      "دَفْعِهِ": 8652,
      "ثَمَنُهُ": 8653,
      "أَبْيَ": 8654,
      "جَعْلُ": 8655,
      "حَاجَتِهِ": 8656,
      "مُعَاذٍ": 8657,
      "الْأَعْمَ": 8658,
      "الذِّكْرِ": 8659,
      "لِلتَّعْ": 8660,
      "حَجٍّ": 8661,
      "مَعْلُومَةً": 8662,
      "قَاتِلِ": 8663,
      "يَذْكُرُ": 8664,
      "قَيْدٌ": 8665,
      "أَفْضَلَ": 8666,
      "رَقِيقٍ": 8667,
      "غَالِبِ": 8668,
      "صَغِيرَةً": 8669,
      "الْفَسْخَ": 8670,
      "وَالصَّحِيحُ": 8671,
      "رَائِضِ": 8672,
      "مُفْسِ": 8673,
      "عِلَّةٍ": 8674,
      "صَبِيٌّ": 8675,
      "الشَّرِيكَيْنِ": 8676,
      "وَغَيْرُهُمَا": 8677,
      "مَمْلُوكٍ": 8678,
      "الْوَاحِدَةِ": 8679,
      "ضَامِنًا": 8680,
      "الْوُقُوفِ": 8681,
      "حُضُورِ": 8682,
      "وَيَسْقُطُ": 8683,
      "حَمَلَتْ": 8684,
      "شَرْعِيٍّ": 8685,
      "بُلُوغِهِ": 8686,
      "الْمَطْلُوبُ": 8687,
      "الْقَدِيرِ": 8688,
      "انْقِطَاعِ": 8689,
      "يُطْلَقُ": 8690,
      "الْحَرَامِ": 8691,
      "مُشْكِلٌ": 8692,
      "يَمْنَعُهُ": 8693,
      "صَالَحَهُ": 8694,
      "الْفَاتِحَةِ": 8695,
      "مُكْرَهًا": 8696,
      "صُوَرٍ": 8697,
      "فَافْهَمْ": 8698,
      "السَّرَخْسِيِّ": 8699,
      "التَّطَوُّعِ": 8700,
      "مُعْتَمَدٌ": 8701,
      "اعْ": 8702,
      "بِيَةِ": 8703,
      "أَذَا": 8704,
      "أَكَانَ": 8705,
      "وَمَرَّ": 8706,
      "وَعَلَّ": 8707,
      "وَوَجَبَ": 8708,
      "وَحَاصِلُهُ": 8709,
      "عَدِ": 8710,
      "مَطْلَ": 8711,
      "بِقَتْلِهِ": 8712,
      "فَهَ": 8713,
      "يَرَ": 8714,
      "نَأْ": 8715,
      "نَسَبَ": 8716,
      "حَجْ": 8717,
      "إِلاَّ": 8718,
      "وَازِ": 8719,
      "َّانِ": 8720,
      "كَانِهِ": 8721,
      "عُيَيْ": 8722,
      "بَابٌ": 8723,
      "ضَحَ": 8724,
      "ضَرْبِ": 8725,
      "بِيرَ": 8726,
      "وَالْعَبْدُ": 8727,
      "حَالًّا": 8728,
      "لِلْعِلْمِ": 8729,
      "وَلَفْظُ": 8730,
      "بِالْحِ": 8731,
      "النَّصِي": 8732,
      "صِيغَةِ": 8733,
      "مُوجَ": 8734,
      "الشَّهْ": 8735,
      "السَّلَفِ": 8736,
      "مَوْهُو": 8737,
      "الْجَنَّةَ": 8738,
      "الْعِشَاءِ": 8739,
      "جَّلُ": 8740,
      "صَحِّ": 8741,
      "فَتَحَ": 8742,
      "مُّلِ": 8743,
      "فِعْلِهَا": 8744,
      "صَاحِبِهَا": 8745,
      "يَمِينَ": 8746,
      "ضَرَرٍ": 8747,
      "كَالرَّ": 8748,
      "وَصِيَّةِ": 8749,
      "سَبْعَةٌ": 8750,
      "شَرِيكُهُ": 8751,
      "فَصْلِ": 8752,
      "وِلَايَةُ": 8753,
      "جَمَاعَةً": 8754,
      "الْحَدِيثُ": 8755,
      "تَخْصِي": 8756,
      "الْأَنْصَارِ": 8757,
      "كَفَّارَةٌ": 8758,
      "إخْرَاجِ": 8759,
      "النَّقْلِ": 8760,
      "الْكَافِرُ": 8761,
      "خَطَأٌ": 8762,
      "شِرَاءٍ": 8763,
      "أَثْلَا": 8764,
      "حَجَرٌ": 8765,
      "وَلِيٌّ": 8766,
      "كَرَاهَةِ": 8767,
      "الْإِجَارَةَ": 8768,
      "لِرَبِّهِ": 8769,
      "التَّيَمُّمُ": 8770,
      "حَلَقَ": 8771,
      "تَطْلِي": 8772,
      "مِثَالُ": 8773,
      "رَجْعِيًّا": 8774,
      "وَنِصْفٌ": 8775,
      "الذُّكُو": 8776,
      "مَسَائِلَ": 8777,
      "الْهَمْزَةِ": 8778,
      "طُلُوعِ": 8779,
      "أَوْجُهٍ": 8780,
      "الْمُسَيِّبِ": 8781,
      "تهَا": 8782,
      "مَطْ": 8783,
      "بِثَلَاثَةِ": 8784,
      "بِذِكْرِ": 8785,
      "فَقْ": 8786,
      "فَهُمْ": 8787,
      "رَتُهَا": 8788,
      "مِعْ": 8789,
      "كَأَنَّ": 8790,
      "لَالَ": 8791,
      "بْعُ": 8792,
      "سَلِ": 8793,
      "يُزَ": 8794,
      "ذَوِي": 8795,
      "الْمُفَ": 8796,
      "خَلُّ": 8797,
      "رَاحِ": 8798,
      "دُفِ": 8799,
      "مَّمُ": 8800,
      "الْأَهْ": 8801,
      "طَةٍ": 8802,
      "ضَرِ": 8803,
      "بِيٌّ": 8804,
      "حَالُهُ": 8805,
      "فُرُ": 8806,
      "خِرْ": 8807,
      "الْإِثْ": 8808,
      "التَّلَ": 8809,
      "الْحَبْ": 8810,
      "الْحَيِّ": 8811,
      "صَابَةِ": 8812,
      "بِالْجِنَايَةِ": 8813,
      "النَّسَبُ": 8814,
      "فَيَشْ": 8815,
      "ضُرِبَ": 8816,
      "وَيُقْ": 8817,
      "نَفْيَ": 8818,
      "نَفْسُهُ": 8819,
      "ذُهُ": 8820,
      "فَأَكَلَ": 8821,
      "الْبَغْ": 8822,
      "أَرْبَاعِ": 8823,
      "اسْتَمَرَّ": 8824,
      "الْأُنْثَى": 8825,
      "الْأُمُورِ": 8826,
      "عُودِ": 8827,
      "تَبَعٌ": 8828,
      "لِلْمُدَّعِي": 8829,
      "يَبْطُلْ": 8830,
      "يَسْتَحِقَّ": 8831,
      "وَنَحْنُ": 8832,
      "تَحْصِي": 8833,
      "الْجِهَةِ": 8834,
      "الصَّلَاحِ": 8835,
      "سَيِّدِ": 8836,
      "صَدَقَةً": 8837,
      "وَصِيَّةٌ": 8838,
      "ثَمَنَ": 8839,
      "جَعْلِ": 8840,
      "وِلَايَةِ": 8841,
      "وِلَايَتِهِ": 8842,
      "وَاجِبَةٌ": 8843,
      "طَلَاقِ": 8844,
      "مُدَّةُ": 8845,
      "بَلَغَهُ": 8846,
      "وَسُكُونِ": 8847,
      "صِفَتِهِ": 8848,
      "ثُبُوتُ": 8849,
      "يُخْرِجَ": 8850,
      "التَّوْضِيحِ": 8851,
      "الْمُضَارِبِ": 8852,
      "حُرَّةٍ": 8853,
      "بَقِيَّةُ": 8854,
      "مَضْمُونَ": 8855,
      "رَهَنَ": 8856,
      "سَبِيلَ": 8857,
      "مُكَاتَبًا": 8858,
      "مَفْعُولِ": 8859,
      "الْخَطَأِ": 8860,
      "الْإِسْلَامَ": 8861,
      "وَأَخْرَجَهُ": 8862,
      "الْمُخْتَارِ": 8863,
      "يَسَعُ": 8864,
      "حُمَيْدٍ": 8865,
      "بِقَيْدٍ": 8866,
      "الْمُشْرِكِينَ": 8867,
      "بِيَقِينٍ": 8868,
      "إنّ": 8869,
      "أَصَ": 8870,
      "أَخٌ": 8871,
      "وَذَكَرَهُ": 8872,
      "وَتَارَةً": 8873,
      "لِشَيْءٍ": 8874,
      "لِحُصُولِ": 8875,
      "لِتَعَلُّقِ": 8876,
      "بِالْوَطْءِ": 8877,
      "تَذْ": 8878,
      "تَتَعَلَّقُ": 8879,
      "قَوَ": 8880,
      "يَزِدْ": 8881,
      "نَبِ": 8882,
      "مُصْ": 8883,
      "مُهْ": 8884,
      "نَّى": 8885,
      "حَثَ": 8886,
      "سَهَا": 8887,
      "سَخَ": 8888,
      "سْت": 8889,
      "يُهُ": 8890,
      "صَدُ": 8891,
      "الْمُمَيِّ": 8892,
[...]
